{
  "version": "1.0",
  "truncation": null,
  "padding": null,
  "added_tokens": [
    {
      "id": 0,
      "content": "<|padding|>",
      "single_word": false,
      "lstrip": false,
      "rstrip": false,
      "normalized": false,
      "special": true
    },
    {
      "id": 1,
      "content": "<|im_start|>",
      "single_word": false,
      "lstrip": false,
      "rstrip": false,
      "normalized": false,
      "special": true
    },
    {
      "id": 2,
      "content": "<|im_end|>",
      "single_word": false,
      "lstrip": false,
      "rstrip": false,
      "normalized": false,
      "special": true
    },
    {
      "id": 3,
      "content": "<|think_start|>",
      "single_word": false,
      "lstrip": false,
      "rstrip": false,
      "normalized": false,
      "special": true
    },
    {
      "id": 4,
      "content": "<|think_end|>",
      "single_word": false,
      "lstrip": false,
      "rstrip": false,
      "normalized": false,
      "special": true
    }
  ],
  "normalizer": null,
  "pre_tokenizer": {
    "type": "ByteLevel",
    "add_prefix_space": false,
    "trim_offsets": true,
    "use_regex": true
  },
  "post_processor": null,
  "decoder": {
    "type": "ByteLevel",
    "add_prefix_space": true,
    "trim_offsets": true,
    "use_regex": true
  },
  "model": {
    "type": "BPE",
    "dropout": null,
    "unk_token": null,
    "continuing_subword_prefix": null,
    "end_of_word_suffix": null,
    "fuse_unk": false,
    "byte_fallback": false,
    "ignore_merges": false,
    "vocab": {
      "<|padding|>": 0,
      "<|im_start|>": 1,
      "<|im_end|>": 2,
      "<|think_start|>": 3,
      "<|think_end|>": 4,
      "!": 5,
      "\"": 6,
      "#": 7,
      "$": 8,
      "%": 9,
      "&": 10,
      "'": 11,
      "(": 12,
      ")": 13,
      "*": 14,
      "+": 15,
      ",": 16,
      "-": 17,
      ".": 18,
      "/": 19,
      "0": 20,
      "1": 21,
      "2": 22,
      "3": 23,
      "4": 24,
      "5": 25,
      "6": 26,
      "7": 27,
      "8": 28,
      "9": 29,
      ":": 30,
      ";": 31,
      "<": 32,
      "=": 33,
      ">": 34,
      "?": 35,
      "@": 36,
      "A": 37,
      "B": 38,
      "C": 39,
      "D": 40,
      "E": 41,
      "F": 42,
      "G": 43,
      "H": 44,
      "I": 45,
      "J": 46,
      "K": 47,
      "L": 48,
      "M": 49,
      "N": 50,
      "O": 51,
      "P": 52,
      "Q": 53,
      "R": 54,
      "S": 55,
      "T": 56,
      "U": 57,
      "V": 58,
      "W": 59,
      "X": 60,
      "Y": 61,
      "Z": 62,
      "[": 63,
      "\\": 64,
      "]": 65,
      "^": 66,
      "_": 67,
      "`": 68,
      "a": 69,
      "b": 70,
      "c": 71,
      "d": 72,
      "e": 73,
      "f": 74,
      "g": 75,
      "h": 76,
      "i": 77,
      "j": 78,
      "k": 79,
      "l": 80,
      "m": 81,
      "n": 82,
      "o": 83,
      "p": 84,
      "q": 85,
      "r": 86,
      "s": 87,
      "t": 88,
      "u": 89,
      "v": 90,
      "w": 91,
      "x": 92,
      "y": 93,
      "z": 94,
      "{": 95,
      "|": 96,
      "}": 97,
      "~": 98,
      "¡": 99,
      "¢": 100,
      "£": 101,
      "¤": 102,
      "¥": 103,
      "¦": 104,
      "§": 105,
      "¨": 106,
      "©": 107,
      "ª": 108,
      "«": 109,
      "¬": 110,
      "®": 111,
      "¯": 112,
      "°": 113,
      "±": 114,
      "²": 115,
      "³": 116,
      "´": 117,
      "µ": 118,
      "¶": 119,
      "·": 120,
      "¸": 121,
      "¹": 122,
      "º": 123,
      "»": 124,
      "¼": 125,
      "½": 126,
      "¾": 127,
      "¿": 128,
      "À": 129,
      "Á": 130,
      "Â": 131,
      "Ã": 132,
      "Ä": 133,
      "Å": 134,
      "Æ": 135,
      "Ç": 136,
      "È": 137,
      "É": 138,
      "Ê": 139,
      "Ë": 140,
      "Ì": 141,
      "Í": 142,
      "Î": 143,
      "Ï": 144,
      "Ð": 145,
      "Ñ": 146,
      "Ò": 147,
      "Ó": 148,
      "Ô": 149,
      "Õ": 150,
      "Ö": 151,
      "×": 152,
      "Ø": 153,
      "Ù": 154,
      "Ú": 155,
      "Û": 156,
      "Ü": 157,
      "Ý": 158,
      "Þ": 159,
      "ß": 160,
      "à": 161,
      "á": 162,
      "â": 163,
      "ã": 164,
      "ä": 165,
      "å": 166,
      "æ": 167,
      "ç": 168,
      "è": 169,
      "é": 170,
      "ê": 171,
      "ë": 172,
      "ì": 173,
      "í": 174,
      "î": 175,
      "ï": 176,
      "ð": 177,
      "ñ": 178,
      "ò": 179,
      "ó": 180,
      "ô": 181,
      "õ": 182,
      "ö": 183,
      "÷": 184,
      "ø": 185,
      "ù": 186,
      "ú": 187,
      "û": 188,
      "ü": 189,
      "ý": 190,
      "þ": 191,
      "ÿ": 192,
      "Ā": 193,
      "ā": 194,
      "Ă": 195,
      "ă": 196,
      "Ą": 197,
      "ą": 198,
      "Ć": 199,
      "ć": 200,
      "Ĉ": 201,
      "ĉ": 202,
      "Ċ": 203,
      "ċ": 204,
      "Č": 205,
      "č": 206,
      "Ď": 207,
      "ď": 208,
      "Đ": 209,
      "đ": 210,
      "Ē": 211,
      "ē": 212,
      "Ĕ": 213,
      "ĕ": 214,
      "Ė": 215,
      "ė": 216,
      "Ę": 217,
      "ę": 218,
      "Ě": 219,
      "ě": 220,
      "Ĝ": 221,
      "ĝ": 222,
      "Ğ": 223,
      "ğ": 224,
      "Ġ": 225,
      "ġ": 226,
      "Ģ": 227,
      "ģ": 228,
      "Ĥ": 229,
      "ĥ": 230,
      "Ħ": 231,
      "ħ": 232,
      "Ĩ": 233,
      "ĩ": 234,
      "Ī": 235,
      "ī": 236,
      "Ĭ": 237,
      "ĭ": 238,
      "Į": 239,
      "į": 240,
      "İ": 241,
      "ı": 242,
      "Ĳ": 243,
      "ĳ": 244,
      "Ĵ": 245,
      "ĵ": 246,
      "Ķ": 247,
      "ķ": 248,
      "ĸ": 249,
      "Ĺ": 250,
      "ĺ": 251,
      "Ļ": 252,
      "ļ": 253,
      "Ľ": 254,
      "ľ": 255,
      "Ŀ": 256,
      "ŀ": 257,
      "Ł": 258,
      "ł": 259,
      "Ń": 260,
      "ãĢ": 261,
      "ä¸": 262,
      "ï¼": 263,
      "ï¼Į": 264,
      "çļ": 265,
      "çļĦ": 266,
      "ãĢĤ": 267,
      "äº": 268,
      "åı": 269,
      "æľ": 270,
      "åħ": 271,
      "ãĢģ": 272,
      "åĪ": 273,
      "çĶ": 274,
      "ä»": 275,
      "åĲ": 276,
      "å¤": 277,
      "ä½": 278,
      "æĸ": 279,
      "åľ": 280,
      "å®": 281,
      "åŃ": 282,
      "ç»": 283,
      "åĽ": 284,
      "ç§": 285,
      "è¿": 286,
      "å¹": 287,
      "åĬ": 288,
      "åį": 289,
      "åĮ": 290,
      "ä¹": 291,
      "æĺ": 292,
      "æĪ": 293,
      "åĴ": 294,
      "åĴĮ": 295,
      "çī": 296,
      "åº": 297,
      "åŃ¦": 298,
      "æĹ": 299,
      "è¯": 300,
      "éĩ": 301,
      "ä¸Ń": 302,
      "å°": 303,
      "è®": 304,
      "ä¸º": 305,
      "å±": 306,
      "ä¼": 307,
      "å¼": 308,
      "æ°": 309,
      "æĢ": 310,
      "æķ": 311,
      "åľ¨": 312,
      "è¡": 313,
      "ä¸Ģ": 314,
      "åĽ½": 315,
      "å¯": 316,
      "éĢ": 317,
      "æľī": 318,
      "æĿ": 319,
      "æī": 320,
      "å·": 321,
      "åĩ": 322,
      "åĨ": 323,
      "âĢ": 324,
      "æµ": 325,
      "å½": 326,
      "æ³": 327,
      "çĽ": 328,
      "å¸": 329,
      "çº": 330,
      "çİ": 331,
      "çŃ": 332,
      "å¹´": 333,
      "å¾": 334,
      "æĺ¯": 335,
      "è§": 336,
      "çĶŁ": 337,
      "èĢ": 338,
      "çĶ¨": 339,
      "æł": 340,
      "æĸĩ": 341,
      "äºİ": 342,
      "ï¼Ī": 343,
      "åİ": 344,
      "ï¼ī": 345,
      "æŀ": 346,
      "äºº": 347,
      "å¤§": 348,
      "éĻ": 349,
      "åĪĨ": 350,
      "ä»¥": 351,
      "åľ°": 352,
      "çĲ": 353,
      "ä½ľ": 354,
      "æĪĲ": 355,
      "çŃī": 356,
      "è´": 357,
      "èĥ": 358,
      "ãĢĭ": 359,
      "ãĢĬ": 360,
      "æĬ": 361,
      "éĿ": 362,
      "éĹ": 363,
      "çī©": 364,
      "åŁ": 365,
      "æĶ": 366,
      "æĢ§": 367,
      "è¾": 368,
      "ä½ĵ": 369,
      "åĮĸ": 370,
      "19": 371,
      "æŃ": 372,
      "åıĳ": 373,
      "éĥ": 374,
      "ä¿": 375,
      "æİ": 376,
      "ä¸İ": 377,
      "çĲĨ": 378,
      "åĩº": 379,
      "ç§°": 380,
      "æĹ¶": 381,
      "ä¸į": 382,
      "äºĨ": 383,
      "ç±": 384,
      "æ²": 385,
      "èĩ": 386,
      "è¦": 387,
      "ä¸»": 388,
      "èĭ": 389,
      "å¯¹": 390,
      "è¦ģ": 391,
      "æĭ": 392,
      "æĸ¹": 393,
      "è¡Į": 394,
      "èµ": 395,
      "æ³ķ": 396,
      "åĲį": 397,
      "åĬ¨": 398,
      "ç§ĳ": 399,
      "æīĢ": 400,
      "å·¥": 401,
      "åī": 402,
      "ç¨": 403,
      "åĵ": 404,
      "åı¯": 405,
      "ç³": 406,
      "åº¦": 407,
      "ä¸Ĭ": 408,
      "ä¼ļ": 409,
      "æ´": 410,
      "éĩı": 411,
      "éĺ": 412,
      "åħ¶": 413,
      "èĥ½": 414,
      "å®ļ": 415,
      "ä¸ª": 416,
      "é¢": 417,
      "ç³»": 418,
      "åĳ": 419,
      "å¿": 420,
      "ç©": 421,
      "âĢľ": 422,
      "âĢĿ": 423,
      "ç§į": 424,
      "æ±": 425,
      "æ¯": 426,
      "æĮ": 427,
      "è½": 428,
      "æ¸": 429,
      "ç«": 430,
      "éĥ¨": 431,
      "åĲİ": 432,
      "ç®": 433,
      "å¥": 434,
      "çŁ": 435,
      "åĪ¶": 436,
      "çİ°": 437,
      "åŃĲ": 438,
      "ä»£": 439,
      "åĲĪ": 440,
      "èĭ±": 441,
      "çĶµ": 442,
      "æ°´": 443,
      "è¿ĩ": 444,
      "éĹ´": 445,
      "å±ŀ": 446,
      "éĿ¢": 447,
      "å¤ļ": 448,
      "é«": 449,
      "éķ": 450,
      "å®¶": 451,
      "è¿Ľ": 452,
      "äº§": 453,
      "ç¨ĭ": 454,
      "é«ĺ": 455,
      "æľº": 456,
      "åĲĮ": 457,
      "ä¾": 458,
      "çł": 459,
      "ç½": 460,
      "ä¹ĭ": 461,
      "åıĬ": 462,
      "éģ": 463,
      "ä¸ļ": 464,
      "èī": 465,
      "æķ°": 466,
      "å½¢": 467,
      "éĢļ": 468,
      "å»": 469,
      "åºĶ": 470,
      "æĪĸ": 471,
      "åĲįç§°": 472,
      "æį": 473,
      "åĬĽ": 474,
      "éĽ": 475,
      "çĽ¸": 476,
      "ç»Ł": 477,
      "çĤ": 478,
      "ç»ı": 479,
      "åĨħ": 480,
      "å¼ı": 481,
      "ç¤": 482,
      "æľ¯": 483,
      "èĢĮ": 484,
      "èĩª": 485,
      "æĸĩåĲįç§°": 486,
      "åĿ": 487,
      "èĤ": 488,
      "å¢": 489,
      "åŁº": 490,
      "è¡¨": 491,
      "æı": 492,
      "20": 493,
      "ï¼Ľ": 494,
      "æľ¬": 495,
      "çī¹": 496,
      "è´¨": 497,
      "æĽ": 498,
      "æľŁ": 499,
      "éĩį": 500,
      "è°": 501,
      "èĭ±æĸĩåĲįç§°": 502,
      "åĮº": 503,
      "ç¾": 504,
      "å®ŀ": 505,
      "åĪ°": 506,
      "ä¸ŃåĽ½": 507,
      "çĶ±": 508,
      "èĪ": 509,
      "ä¸ĭ": 510,
      "ç±»": 511,
      "èĢħ": 512,
      "åŀ": 513,
      "è®¾": 514,
      "ä¸ĸ": 515,
      "å»º": 516,
      "¦Ĥ": 517,
      "ä½į": 518,
      "åħ³": 519,
      "ç¼": 520,
      "æĻ": 521,
      "æĦ": 522,
      "éļ": 523,
      "ç¬": 524,
      "åĬł": 525,
      "çķ": 526,
      "ç»ĵ": 527,
      "éķ¿": 528,
      "åĪ©": 529,
      "çłĶ": 530,
      "å¹³": 531,
      "å±ķ": 532,
      "èģ": 533,
      "æº": 534,
      "åĵģ": 535,
      "æµģ": 536,
      "åİŁ": 537,
      "æŀĦ": 538,
      "æĿ¥": 539,
      "åıĺ": 540,
      "åħ¨": 541,
      "ç»Ħ": 542,
      "è®¡": 543,
      "èĬ": 544,
      "æŁ": 545,
      "åŃ¦ç§ĳ": 546,
      "å£": 547,
      "æ°ĳ": 548,
      "åĽł": 549,
      "çĥ": 550,
      "çĤ¹": 551,
      "å°ı": 552,
      "åĻ": 553,
      "æ°Ķ": 554,
      "åŀĭ": 555,
      "æĥ": 556,
      "ç¡": 557,
      "å¹¶": 558,
      "æ¶": 559,
      "èį": 560,
      "æķĻ": 561,
      "é£": 562,
      "ä»ĸ": 563,
      "âĳ": 564,
      "å¼Ģ": 565,
      "éħ": 566,
      "å¤ĸ": 567,
      "ç©¶": 568,
      "å½±": 569,
      "åħ¬": 570,
      "åĢ": 571,
      "ç´": 572,
      "æīĢå±ŀ": 573,
      "ç±³": 574,
      "è¥": 575,
      "çłĶç©¶": 576,
      "è¿Ļ": 577,
      "æĹ¥": 578,
      "ç®¡": 579,
      "æľĢ": 580,
      "æıĲ": 581,
      "è·": 582,
      "æµĭ": 583,
      "åĻ¨": 584,
      "æĸ°": 585,
      "è¥¿": 586,
      "å¦Ĥ": 587,
      "å§": 588,
      "æīĢå±ŀåŃ¦ç§ĳ": 589,
      "æ¬": 590,
      "é¦": 591,
      "ä½¿": 592,
      "æĸ¯": 593,
      "åħ·": 594,
      "ç«ĭ": 595,
      "ä¸»è¦ģ": 596,
      "è¢": 597,
      "æĶ¿": 598,
      "çľ": 599,
      "é¡": 600,
      "ä¼ł": 601,
      "ä¹Ł": 602,
      "åħ¥": 603,
      "æĬĢ": 604,
      "è®º": 605,
      "å¸¸": 606,
      "ä¹¦": 607,
      "ï½": 608,
      "ï½ŀ": 609,
      "ç¤¾": 610,
      "ĊĊ": 611,
      "äºĭ": 612,
      "ä¿Ŀ": 613,
      "è¶": 614,
      "æģ": 615,
      "ç²": 616,
      "æµ·": 617,
      "éĵ": 618,
      "å¾Ĺ": 619,
      "åħī": 620,
      "ä¿¡": 621,
      "æ®": 622,
      "ä»İ": 623,
      "ç¬¬": 624,
      "ç³»ç»Ł": 625,
      "æį®": 626,
      "è¢«": 627,
      "ç¦": 628,
      "åįĹ": 629,
      "è¯Ń": 630,
      "åĽ¾": 631,
      "éģĵ": 632,
      "è§Ħ": 633,
      "ä¹ī": 634,
      "ï¼ļ": 635,
      "è¿Ĳ": 636,
      "éª": 637,
      "ç¾İ": 638,
      "ä»¶": 639,
      "æŃ¤": 640,
      "éĴ": 641,
      "å°Ķ": 642,
      "æłĩ": 643,
      "çģ": 644,
      "çĦ": 645,
      "æĺİ": 646,
      "å¿ĥ": 647,
      "æĸĻ": 648,
      "å²": 649,
      "åĲĦ": 650,
      "éľ": 651,
      "çĽ®": 652,
      "åĲĳ": 653,
      "åĮħ": 654,
      "å¯¼": 655,
      "æ¡": 656,
      "è¿Ľè¡Į": 657,
      "åĮĹ": 658,
      "ä¸ī": 659,
      "æ´»": 660,
      "in": 661,
      "æ¨": 662,
      "å¸ĥ": 663,
      "çº¿": 664,
      "çİ¯": 665,
      "å¸Ĥ": 666,
      "ä¸¤": 667,
      "æºĲ": 668,
      "æ¼": 669,
      "æĢģ": 670,
      "è£": 671,
      "èİ": 672,
      "æĬĢæľ¯": 673,
      "æ·": 674,
      "on": 675,
      "çĬ": 676,
      "ä»»": 677,
      "åıį": 678,
      "éĩĳ": 679,
      "ç¥": 680,
      "çĹ": 681,
      "å±±": 682,
      "èµĦ": 683,
      "åģ": 684,
      "å°Ĩ": 685,
      "åĳĺ": 686,
      "èĲ": 687,
      "é©": 688,
      "èµ·": 689,
      "éĽĨ": 690,
      "åīį": 691,
      "è¾ĥ": 692,
      "åıĳå±ķ": 693,
      "å½ĵ": 694,
      "æ¯Ķ": 695,
      "äºĮ": 696,
      "åįķ": 697,
      "æľĪ": 698,
      "åıĪ": 699,
      "é»": 700,
      "å¤©": 701,
      "æİ¥": 702,
      "an": 703,
      "åī§": 704,
      "åħ±": 705,
      "è§£": 706,
      "çĻ": 707,
      "ç¤¾ä¼ļ": 708,
      "èĦ": 709,
      "æĮĩ": 710,
      "èī²": 711,
      "æ¨¡": 712,
      "åĬ¡": 713,
      "éŁ": 714,
      "å¤Ħ": 715,
      "at": 716,
      "åľŁ": 717,
      "ç©º": 718,
      "åı²": 719,
      "18": 720,
      "ä¸ľ": 721,
      "å±Ĥ": 722,
      "éĶ": 723,
      "éĻ¢": 724,
      "å®ī": 725,
      "åľº": 726,
      "çĦ¶": 727,
      "æķĪ": 728,
      "çķĮ": 729,
      "çŁ³": 730,
      "å¢ĥ": 731,
      "è°ĥ": 732,
      "æ²»": 733,
      "çİĩ": 734,
      "çĿ": 735,
      "èīº": 736,
      "å¾·": 737,
      "æ£": 738,
      "æ¬¡": 739,
      "æĭī": 740,
      "éĢļè¿ĩ": 741,
      "è§Ĥ": 742,
      "er": 743,
      "èĮ": 744,
      "æĹł": 745,
      "åħĥ": 746,
      "æĦı": 747,
      "æĭ¬": 748,
      "è±": 749,
      "æŃ£": 750,
      "æł¼": 751,
      "äº¤": 752,
      "ä¸Ģä¸ª": 753,
      "è¾¾": 754,
      "çĥŃ": 755,
      "åħĭ": 756,
      "åŃĺ": 757,
      "èĳ": 758,
      "00": 759,
      "åĪĽ": 760,
      "åŁİ": 761,
      "åı¯ä»¥": 762,
      "æĥħ": 763,
      "å°Ħ": 764,
      "ãĢĭãĢĬ": 765,
      "äºļ": 766,
      "éĩĩ": 767,
      "åĮħæĭ¬": 768,
      "çĸ": 769,
      "éĢł": 770,
      "çĬ¶": 771,
      "å¼º": 772,
      "åı¤": 773,
      "æ¼Ķ": 774,
      "ç´ł": 775,
      "èĤ²": 776,
      "åıĹ": 777,
      "æ»": 778,
      "éĥ½": 779,
      "åĪĻ": 780,
      "é¢ĺ": 781,
      "çºª": 782,
      "ç§ĳåŃ¦": 783,
      "åĽ½å®¶": 784,
      "åħ·æľī": 785,
      "å·¥ç¨ĭ": 786,
      "ä¸įåĲĮ": 787,
      "ç»´": 788,
      "æĿ¡": 789,
      "å¹¿": 790,
      "é£İ": 791,
      "èģĶ": 792,
      "ç»ĩ": 793,
      "è½¬": 794,
      "æĹı": 795,
      "å¡": 796,
      "è¯´": 797,
      "æĸ¹æ³ķ": 798,
      "åŁŁ": 799,
      "è¿ĩç¨ĭ": 800,
      "ç§¯": 801,
      "ç»ĵæŀĦ": 802,
      "éªĮ": 803,
      "çĽ´": 804,
      "è¿ĺ": 805,
      "åı£": 806,
      "åĪ«": 807,
      "æģ¯": 808,
      "ç¦»": 809,
      "å¤į": 810,
      "çīĪ": 811,
      "çº¦": 812,
      "æĿĲ": 813,
      "çº§": 814,
      "al": 815,
      "ï¼īãĢģ": 816,
      "æĶ¶": 817,
      "èĩ³": 818,
      "åİĭ": 819,
      "æ¢": 820,
      "ä½Ĩ": 821,
      "èĻ": 822,
      "çĹħ": 823,
      "æİ§": 824,
      "æĢ»": 825,
      "æ±Ĥ": 826,
      "éĿŀ": 827,
      "æ²³": 828,
      "æł¹": 829,
      "æĹ¶éĹ´": 830,
      "åĵį": 831,
      "è¯Ĺ": 832,
      "è±¡": 833,
      "æ¸©": 834,
      "æŀľ": 835,
      "åİĨ": 836,
      "åıĸ": 837,
      "æĶ¹": 838,
      "ç½®": 839,
      "åĩĨ": 840,
      "åŃĹ": 841,
      "è·¯": 842,
      "åĢ¼": 843,
      "èĬĤ": 844,
      "éľĢ": 845,
      "æ¹": 846,
      "çİ¯å¢ĥ": 847,
      "å¸¦": 848,
      "é©¬": 849,
      "éĻħ": 850,
      "en": 851,
      "éĢī": 852,
      "ç¼ĸ": 853,
      "å·¥ä½ľ": 854,
      "äºĽ": 855,
      "ç®¡çĲĨ": 856,
      "èİ·": 857,
      "æµİ": 858,
      "ä½İ": 859,
      "æŀĹ": 860,
      "ä»¥åıĬ": 861,
      "ç»Ĩ": 862,
      "éĢŁ": 863,
      "åĬŁ": 864,
      "æĬ¤": 865,
      "åį³": 866,
      "ä½ľçĶ¨": 867,
      "éĹ¨": 868,
      "éŁ³": 869,
      "10": 870,
      "èħ": 871,
      "æ³¢": 872,
      "ä¸ŃçļĦ": 873,
      "è¨": 874,
      "è¨Ģ": 875,
      "ãĢĭï¼Ī": 876,
      "åĶ": 877,
      "åįģ": 878,
      "è®¤": 879,
      "çĿĢ": 880,
      "æĦŁ": 881,
      "æ¤": 882,
      "è£ħ": 883,
      "ä¿¡æģ¯": 884,
      "åĸ": 885,
      "éĩįè¦ģ": 886,
      "çīĩ": 887,
      "åıĤ": 888,
      "æĿĥ": 889,
      "ç¢": 890,
      "æĸ½": 891,
      "å°±": 892,
      "ï¼īï¼Į": 893,
      "ar": 894,
      "æ³¨": 895,
      "æ®µ": 896,
      "åı·": 897,
      "åĿĩ": 898,
      "èĳĹ": 899,
      "éĩĮ": 900,
      "æĶ¾": 901,
      "å¼ķ": 902,
      "ç¡®": 903,
      "åĨľ": 904,
      "ä¸ĸçºª": 905,
      "å½±åĵį": 906,
      "å®¹": 907,
      "åĪĹ": 908,
      "éĹ®": 909,
      "å½¢æĪĲ": 910,
      "åĽĽ": 911,
      "çĪ": 912,
      "å§ĭ": 913,
      "è¯¥": 914,
      "é¦Ĩ": 915,
      "ç»ıæµİ": 916,
      "çĶŁçī©": 917,
      "æŀģ": 918,
      "æĳ": 919,
      "è§Ĩ": 920,
      "ç®Ĺ": 921,
      "ç£": 922,
      "æķ´": 923,
      "æĽ²": 924,
      "è®°": 925,
      "æĴ": 926,
      "å¢ŀ": 927,
      "çħ": 928,
      "æĪĺ": 929,
      "ä¸ĵ": 930,
      "ä¾Ľ": 931,
      "å¤ĩ": 932,
      "é¢Ĩ": 933,
      "çĭ": 934,
      "çĶŁäº§": 935,
      "æĮģ": 936,
      "æ¸ħ": 937,
      "ç¥ŀ": 938,
      "è§ģ": 939,
      "ç¾İåĽ½": 940,
      "æĽ´": 941,
      "å·ŀ": 942,
      "ä»·": 943,
      "éĤ": 944,
      "éļı": 945,
      "ç»Ħç»ĩ": 946,
      "å°ĳ": 947,
      "ä¹Ĳ": 948,
      "æŀĲ": 949,
      "åı°": 950,
      "ï¼īãĢĤ": 951,
      "åħĪ": 952,
      "çĻ½": 953,
      "åĪĴ": 954,
      "æł·": 955,
      "èº": 956,
      "åİ»": 957,
      "èĮĥ": 958,
      "æľį": 959,
      "ç½Ĺ": 960,
      "ä¸Ģç§į": 961,
      "æĸĩåĮĸ": 962,
      "ion": 963,
      "çŁ¥": 964,
      "çľģ": 965,
      "åĨĽ": 966,
      "èı": 967,
      "çİĭ": 968,
      "åºľ": 969,
      "è¯Ĩ": 970,
      "éĥ¨åĪĨ": 971,
      "è¯Ħ": 972,
      "ç²¾": 973,
      "æ±Ł": 974,
      "ç½ĳ": 975,
      "æİ§åĪ¶": 976,
      "çĲĨè®º": 977,
      "æĬ¥": 978,
      "ç¤º": 979,
      "ä½¿çĶ¨": 980,
      "or": 981,
      "ic": 982,
      "åĩºçīĪ": 983,
      "çª": 984,
      "èĹ": 985,
      "æ¤į": 986,
      "è®¾è®¡": 987,
      "ol": 988,
      "èº«": 989,
      "èĩ´": 990,
      "ä»¬": 991,
      "è¯ķ": 992,
      "å®Į": 993,
      "å¤§åŃ¦": 994,
      "æĸŃ": 995,
      "å¾®": 996,
      "è¿ĳ": 997,
      "æł¸": 998,
      "äº§çĶŁ": 999,
      "é¦ĸ": 1000,
      "æīĭ": 1001,
      "åĥ": 1002,
      "å¯Ĩ": 1003,
      "åįİ": 1004,
      "çŁ¿": 1005,
      "åĪĨæŀĲ": 1006,
      "å¾ģ": 1007,
      "åįĥ": 1008,
      "æĿĲæĸĻ": 1009,
      "çĶ»": 1010,
      "200": 1011,
      "å·²": 1012,
      "è¯į": 1013,
      "èīºæľ¯": 1014,
      "åķ": 1015,
      "ĉĊ": 1016,
      "st": 1017,
      "è¯ģ": 1018,
      "ä¸ĩ": 1019,
      "å£«": 1020,
      "çĲĥ": 1021,
      "åĲ«": 1022,
      "å¾ĭ": 1023,
      "èĪ¬": 1024,
      "èĬ±": 1025,
      "çĶ¨äºİ": 1026,
      "åĳ½": 1027,
      "åĨ³": 1028,
      "é¡¹": 1029,
      "è§Ĵ": 1030,
      "åľ°åĮº": 1031,
      "èį¯": 1032,
      "è¾ĵ": 1033,
      "ä¸ĢèĪ¬": 1034,
      "æĢĿ": 1035,
      "åıĪç§°": 1036,
      "æ²¹": 1037,
      "åł": 1038,
      "å¥ĸ": 1039,
      "æ·±": 1040,
      "åĪ©çĶ¨": 1041,
      "å·´": 1042,
      "æĪı": 1043,
      "åħ³ç³»": 1044,
      "ä¸»ä¹ī": 1045,
      "åĳ¨": 1046,
      "å¹²": 1047,
      "æĶ¯": 1048,
      "éĹ®é¢ĺ": 1049,
      "åĮ»": 1050,
      "æķ°æį®": 1051,
      "æ¶²": 1052,
      "æİ¨": 1053,
      "éĺ²": 1054,
      "æķĻèĤ²": 1055,
      "æķħ": 1056,
      "éĩĩçĶ¨": 1057,
      "12": 1058,
      "æŃ¥": 1059,
      "èĴ": 1060,
      "éħ¸": 1061,
      "ĊĊĉĊ": 1062,
      "198": 1063,
      "åĽŀ": 1064,
      "éĢĤ": 1065,
      "ç¾¤": 1066,
      "åĽ´": 1067,
      "æĿĤ": 1068,
      "åıĳçĶŁ": 1069,
      "æĻ¯": 1070,
      "å®ĥ": 1071,
      "åĪĨä¸º": 1072,
      "æĺŁ": 1073,
      "å½ķ": 1074,
      "éĻį": 1075,
      "éħį": 1076,
      "åĪĿ": 1077,
      "å¥½": 1078,
      "ä½ľåĵģ": 1079,
      "èĢĥ": 1080,
      "èµĦæºĲ": 1081,
      "èįī": 1082,
      "å·®": 1083,
      "åį°": 1084,
      "ä¸ĸçķĮ": 1085,
      "åīĤ": 1086,
      "è¿°": 1087,
      "æł¹æį®": 1088,
      "è¿ŀ": 1089,
      "çĵ": 1090,
      "199": 1091,
      "æ£Ģ": 1092,
      "ä¿®": 1093,
      "éĻ¤": 1094,
      "æ¡Ī": 1095,
      "åı¸": 1096,
      "æ¿": 1097,
      "æ´»åĬ¨": 1098,
      "åħ»": 1099,
      "åİĨåı²": 1100,
      "æ±ī": 1101,
      "åºı": 1102,
      "æĸ¹éĿ¢": 1103,
      "äº¬": 1104,
      "æł¡": 1105,
      "åįļ": 1106,
      "ä¹ĭéĹ´": 1107,
      "ä¿ĿæĬ¤": 1108,
      "å¤´": 1109,
      "ä½ľä¸º": 1110,
      "åĮĸåŃ¦": 1111,
      "åķĨ": 1112,
      "è¿ĲåĬ¨": 1113,
      "åĥı": 1114,
      "åħ¶ä»ĸ": 1115,
      "åĽ½éĻħ": 1116,
      "ä¼ĺ": 1117,
      "å°¼": 1118,
      "èĪª": 1119,
      "çĮ": 1120,
      "ç»Ń": 1121,
      "çŃĳ": 1122,
      "éĺ¿": 1123,
      "å¼Ĥ": 1124,
      "åĭ": 1125,
      "å£°": 1126,
      "é²": 1127,
      "ä¾ĭ": 1128,
      "è®®": 1129,
      "æĺ¾": 1130,
      "15": 1131,
      "æĺĵ": 1132,
      "çº³": 1133,
      "æĸĩåŃ¦": 1134,
      "é¥": 1135,
      "æİĴ": 1136,
      "è½½": 1137,
      "äºĴ": 1138,
      "åħ°": 1139,
      "æĻ®": 1140,
      "æĸ¹å¼ı": 1141,
      "åįı": 1142,
      "åĽ¢": 1143,
      "Â·": 1144,
      "å§Ķ": 1145,
      "å¾Ī": 1146,
      "çħ§": 1147,
      "å¤ª": 1148,
      "å¸Ī": 1149,
      "éĻĲ": 1150,
      "195": 1151,
      "æĪĲä¸º": 1152,
      "çĶ±äºİ": 1153,
      "åį·": 1154,
      "âĢĿï¼Į": 1155,
      "æ¿Ģ": 1156,
      "17": 1157,
      "åĨĻ": 1158,
      "åıĺåĮĸ": 1159,
      "ä»£è¡¨": 1160,
      "åħ¸": 1161,
      "åŁºç¡": 1162,
      "å±Ģ": 1163,
      "åŁºç¡Ģ": 1164,
      "es": 1165,
      "èĹı": 1166,
      "å¹´ä»£": 1167,
      "éĺ³": 1168,
      "å¿µ": 1169,
      "é¾": 1170,
      "è½¦": 1171,
      "æĶ¿åºľ": 1172,
      "åĪĨå¸ĥ": 1173,
      "æĥ³": 1174,
      "Ġ\\": 1175,
      "éģĹ": 1176,
      "éĺ¶": 1177,
      "èĩªçĦ¶": 1178,
      "äºĶ": 1179,
      "æľ¨": 1180,
      "åĲĮæĹ¶": 1181,
      "å²©": 1182,
      "çı": 1183,
      "16": 1184,
      "æĮī": 1185,
      "æŁ¥": 1186,
      "æ¯ı": 1187,
      "ä¾Ŀ": 1188,
      "Ġo": 1189,
      "åı¶": 1190,
      "åĽº": 1191,
      "ç§»": 1192,
      "æŃĮ": 1193,
      "æĿ¡ä»¶": 1194,
      "èĥŀ": 1195,
      "æķ£": 1196,
      "it": 1197,
      "éľĢè¦ģ": 1198,
      "è®¡ç®Ĺ": 1199,
      "é¢Ħ": 1200,
      "âĳł": 1201,
      "å½¢å¼ı": 1202,
      "æĹ¥æľŁ": 1203,
      "âĳ¡": 1204,
      "çľŁ": 1205,
      "çŃĸ": 1206,
      "åŃĺåľ¨": 1207,
      "å¼ł": 1208,
      "æĹ©": 1209,
      "åĩºçĶŁ": 1210,
      "Ġs": 1211,
      "ä»Ĭ": 1212,
      "çİ°ä»£": 1213,
      "ç£ģ": 1214,
      "ing": 1215,
      "èĭı": 1216,
      "å¥³": 1217,
      "èĨ": 1218,
      "å®ļçļĦ": 1219,
      "åħ¶ä¸Ń": 1220,
      "æ´²": 1221,
      "åĬŁèĥ½": 1222,
      "å»ºçŃĳ": 1223,
      "ä¸Ķ": 1224,
      "å¤±": 1225,
      "èģļ": 1226,
      "æŁĵ": 1227,
      "ç»ĦæĪĲ": 1228,
      "æ¤įçī©": 1229,
      "è¶³": 1230,
      "æ°§": 1231,
      "ac": 1232,
      "Ġc": 1233,
      "å®¤": 1234,
      "ç¿": 1235,
      "æĬĹ": 1236,
      "åĨµ": 1237,
      "197": 1238,
      "æ¶Ī": 1239,
      "æıĲåĩº": 1240,
      "æĤ": 1241,
      "èĲ¥": 1242,
      "é»Ħ": 1243,
      "åİ¿": 1244,
      "196": 1245,
      "åºĶçĶ¨": 1246,
      "âĢĿãĢĤ": 1247,
      "èģĮ": 1248,
      "æıĲä¾Ľ": 1249,
      "äºī": 1250,
      "äººæ°ĳ": 1251,
      "å±ħ": 1252,
      "ç©ºéĹ´": 1253,
      "çĭ¬": 1254,
      "çĶŁæ´»": 1255,
      "æİ¢": 1256,
      "æłĩåĩĨ": 1257,
      "åĲ¸": 1258,
      "åıįåºĶ": 1259,
      "å¨": 1260,
      "çĶµåŃĲ": 1261,
      "è¶ħ": 1262,
      "æľįåĬ¡": 1263,
      "ç®Ģ": 1264,
      "Ġt": 1265,
      "å®ĺ": 1266,
      "çģ«": 1267,
      "è¶Ĭ": 1268,
      "çĩ": 1269,
      "åĪĬ": 1270,
      "æ¸¸": 1271,
      "åıª": 1272,
      "194": 1273,
      "åŁºæľ¬": 1274,
      "å¤ĦçĲĨ": 1275,
      "åĨį": 1276,
      "å®ŀçİ°": 1277,
      "è¯Ńè¨Ģ": 1278,
      "éĵģ": 1279,
      "ä¹ł": 1280,
      "le": 1281,
      "åĽŃ": 1282,
      "193": 1283,
      "åŁİå¸Ĥ": 1284,
      "è¾¹": 1285,
      "11": 1286,
      "å®īåħ¨": 1287,
      "åįĬ": 1288,
      "Ġp": 1289,
      "å¼Ģå§ĭ": 1290,
      "åĪĨåŃĲ": 1291,
      "å¤«": 1292,
      "åĤ": 1293,
      "ç»Ĩèĥŀ": 1294,
      "çĨ": 1295,
      "ç¬¬ä¸Ģ": 1296,
      "å¿Ĺ": 1297,
      "âĢĶ": 1298,
      "è¦ģæ±Ĥ": 1299,
      "å®Ĺ": 1300,
      "ãĢĭï¼Į": 1301,
      "èıĮ": 1302,
      "æµĭéĩı": 1303,
      "{\\": 1304,
      "éķĩ": 1305,
      "ä¼Ĺ": 1306,
      "å®³": 1307,
      "åĽłæŃ¤": 1308,
      "åĨħå®¹": 1309,
      "ç»Ļ": 1310,
      "åĩı": 1311,
      "é£Ł": 1312,
      "åľ°çĤ¹": 1313,
      "åĪĩ": 1314,
      "æĽ¾": 1315,
      "åĩºçİ°": 1316,
      "et": 1317,
      "è®¤ä¸º": 1318,
      "åıĮ": 1319,
      "è¡Ģ": 1320,
      "åºĵ": 1321,
      "åĬŀ": 1322,
      "Ġof": 1323,
      "ä¸Ńå¿ĥ": 1324,
      "åĬ©": 1325,
      "èĪŀ": 1326,
      "éĿĴ": 1327,
      "éĿ¢ç§¯": 1328,
      "çĽĳ": 1329,
      "äº§åĵģ": 1330,
      "ç§°ä¸º": 1331,
      "éĿ©": 1332,
      "æĳĦ": 1333,
      "æĴŃ": 1334,
      "ä¸ĬçļĦ": 1335,
      "åį«": 1336,
      "ä»ª": 1337,
      "ation": 1338,
      "èŀ": 1339,
      "æī¿": 1340,
      "å»ºç«ĭ": 1341,
      "é£ŀ": 1342,
      "æĹ¶æľŁ": 1343,
      "æĢ§çļĦ": 1344,
      "æ´¾": 1345,
      "å¾Ģ": 1346,
      "æī¹": 1347,
      "çº¢": 1348,
      "èİ·å¾Ĺ": 1349,
      "æ¨¡åŀĭ": 1350,
      "ç¨³": 1351,
      "æ¦Ĥ": 1352,
      "re": 1353,
      "ç²Ĵ": 1354,
      "åįĥç±³": 1355,
      "ro": 1356,
      "åĩł": 1357,
      "æ½": 1358,
      "çī¹å¾ģ": 1359,
      "åĲĦç§į": 1360,
      "é¢ĳ": 1361,
      "åĬ¿": 1362,
      "å¯Į": 1363,
      "æį¢": 1364,
      "è¡Įä¸º": 1365,
      "æ¹ĸ": 1366,
      "æľĿ": 1367,
      "å¿ħ": 1368,
      "çĲĨåŃ¦": 1369,
      "æ»¡": 1370,
      "ä»ħ": 1371,
      "çĽ¸åħ³": 1372,
      "rm": 1373,
      "âĳ¢": 1374,
      "çĽĬ": 1375,
      "ä½ĵçļĦ": 1376,
      "åİ»ä¸ĸ": 1377,
      "åĦ": 1378,
      "åį¡": 1379,
      "èĥ½åĬĽ": 1380,
      "çĶµå½±": 1381,
      "æŁĲ": 1382,
      "ä½Ļ": 1383,
      "é¼": 1384,
      "åįĩ": 1385,
      "æĿ¿": 1386,
      "æĬĬ": 1387,
      "åºķ": 1388,
      "å¦": 1389,
      "ç´¢": 1390,
      "ç¯": 1391,
      "Ġm": 1392,
      "13": 1393,
      "æľª": 1394,
      "åħ¬åı¸": 1395,
      "å§Ķåĳĺ": 1396,
      "14": 1397,
      "æļ": 1398,
      "æ¯Ĵ": 1399,
      "å¾Ħ": 1400,
      "ï¼īãĢģãĢĬ": 1401,
      "$\\": 1402,
      "éĻ©": 1403,
      "æıĲé«ĺ": 1404,
      "ç±į": 1405,
      "æĿĳ": 1406,
      "ç«¯": 1407,
      "éĢļå¸¸": 1408,
      "åı¯èĥ½": 1409,
      "åĪ»": 1410,
      "åįķä½į": 1411,
      "åĪĽä½ľ": 1412,
      "æ´ĭ": 1413,
      "å·¥ä¸ļ": 1414,
      "æľºæŀĦ": 1415,
      "è´¹": 1416,
      "åħļ": 1417,
      "åıĳçİ°": 1418,
      "èĽ": 1419,
      "çĶŁæĢģ": 1420,
      "ç«ł": 1421,
      "æĵ": 1422,
      "çŁŃ": 1423,
      "éĻĦ": 1424,
      "æıı": 1425,
      "çªģ": 1426,
      "ĠC": 1427,
      "è´¨éĩı": 1428,
      "è®¾å¤ĩ": 1429,
      "åľ°è´¨": 1430,
      "é¢ĨåŁŁ": 1431,
      "åħ´": 1432,
      "èĲ½": 1433,
      "æ³Ľ": 1434,
      "çļ®": 1435,
      "å°ıè¯´": 1436,
      "ĠS": 1437,
      "ä»ĭ": 1438,
      "è¡¨çİ°": 1439,
      "å¾ĹåĪ°": 1440,
      "è®¸": 1441,
      "äººçļĦ": 1442,
      "ä¼łç»Ł": 1443,
      "çī©è´¨": 1444,
      "æŃ¦": 1445,
      "ä¼ģ": 1446,
      "æ°ĳæĹı": 1447,
      "æĪĲç«ĭ": 1448,
      "èĭ±åĽ½": 1449,
      "å¯¹äºİ": 1450,
      "åĬ¨çī©": 1451,
      "ä½ķ": 1452,
      "å²Ľ": 1453,
      "is": 1454,
      "åĨ²": 1455,
      "éº": 1456,
      "æº¶": 1457,
      "çļĦä¸Ģ": 1458,
      "æĶ¿æ²»": 1459,
      "æįŁ": 1460,
      "ç±»åŀĭ": 1461,
      "è¿ĻäºĽ": 1462,
      "èĢģ": 1463,
      "ä¹ĭä¸Ģ": 1464,
      "æĻ¶": 1465,
      "çł´": 1466,
      "ä¾§": 1467,
      "el": 1468,
      "æĬķ": 1469,
      "å¡Ķ": 1470,
      "è°±": 1471,
      "åįł": 1472,
      "éĩĬ": 1473,
      "åħħ": 1474,
      "è´Ł": 1475,
      "äºĳ": 1476,
      "æĥħåĨµ": 1477,
      "ç»ľ": 1478,
      "èĮĥåĽ´": 1479,
      "192": 1480,
      "å»ºè®¾": 1481,
      "è¿ľ": 1482,
      "Ġd": 1483,
      "æ¸©åº¦": 1484,
      "åĸĦ": 1485,
      "é»ĳ": 1486,
      "åĶĲ": 1487,
      "ç»Ī": 1488,
      "åħ¨åĽ½": 1489,
      "ä¸´": 1490,
      "éĢĲ": 1491,
      "ä¸¥": 1492,
      "ä½įäºİ": 1493,
      "åģļ": 1494,
      "æĪ·": 1495,
      "åı¦": 1496,
      "ä¼ģä¸ļ": 1497,
      "ä¾¿": 1498,
      "ä¼¦": 1499,
      "ä¸¾": 1500,
      "å¥¥": 1501,
      "åŃĶ": 1502,
      "åĦ¿": 1503,
      "èĨľ": 1504,
      "çķ¥": 1505,
      "æ··": 1506,
      "æłĳ": 1507,
      "ent": 1508,
      "é¸": 1509,
      "çĬ¶æĢģ": 1510,
      "ä¹¡": 1511,
      "æ¯Ľ": 1512,
      "ç»¼": 1513,
      "æīį": 1514,
      "é¾Ļ": 1515,
      "å¿«": 1516,
      "å¸Ŀ": 1517,
      "éĴĪ": 1518,
      "å¤§çļĦ": 1519,
      "æī©": 1520,
      "çĽ´æİ¥": 1521,
      "ç¯ĩ": 1522,
      "æ²Ļ": 1523,
      "è¿Ļç§į": 1524,
      "50": 1525,
      "éļ¾": 1526,
      "æ²¡": 1527,
      "å®ĭ": 1528,
      "æ¬§": 1529,
      "bol": 1530,
      "è¡¨éĿ¢": 1531,
      "éŁ³ä¹Ĳ": 1532,
      "çĮ®": 1533,
      "ä½ĵç³»": 1534,
      "èĦī": 1535,
      "æ¯į": 1536,
      "çĩĥ": 1537,
      "éĩĳå±ŀ": 1538,
      "çĽ®æłĩ": 1539,
      "}}": 1540,
      "çĸĹ": 1541,
      "åľĨ": 1542,
      "åįļçī©": 1543,
      "è¿ĩç¨ĭä¸Ń": 1544,
      "è´£": 1545,
      "åĮºåŁŁ": 1546,
      "è·Ŀ": 1547,
      "éĻĨ": 1548,
      "æ®ĸ": 1549,
      "åº·": 1550,
      "ä¼¼": 1551,
      "è§ĦåĪĴ": 1552,
      "å½Ĵ": 1553,
      "30": 1554,
      "âĢĿâĢľ": 1555,
      "il": 1556,
      "he": 1557,
      "Ġf": 1558,
      "æ±¡": 1559,
      "ä¸¤ä¸ª": 1560,
      "ç¦ı": 1561,
      "Âł": 1562,
      "åĨľä¸ļ": 1563,
      "åĽ¾ä¹¦": 1564,
      "å¹¿æ³Ľ": 1565,
      "æŃ¢": 1566,
      "æ¥": 1567,
      "åħŃ": 1568,
      "è¯»": 1569,
      "åĳĪ": 1570,
      "ig": 1571,
      "åĪ¶åº¦": 1572,
      "å®½": 1573,
      "æĮ¯": 1574,
      "å§Ķåĳĺä¼ļ": 1575,
      "åŁ¹": 1576,
      "æľ«": 1577,
      "ä¸ģ": 1578,
      "è¯ĳ": 1579,
      "åĬ³": 1580,
      "åĽłç´ł": 1581,
      "ç»¼åĲĪ": 1582,
      "æħ": 1583,
      "éª¨": 1584,
      "_{": 1585,
      "åŃ¦ä¹ł": 1586,
      "æİĪ": 1587,
      "çº¤": 1588,
      "ä¼Ĭ": 1589,
      "éļľ": 1590,
      "åŃ¦éĻ¢": 1591,
      "é½": 1592,
      "å¹³æĸ¹": 1593,
      "å¼¹": 1594,
      "èī¯": 1595,
      "äººåı£": 1596,
      "è£Ĥ": 1597,
      "åĪ¤": 1598,
      "å¯Ł": 1599,
      "çĪ±": 1600,
      "äººç±»": 1601,
      "åĨ·": 1602,
      "çĽ®çļĦ": 1603,
      "è¡¥": 1604,
      "è¯ķéªĮ": 1605,
      "çĵ¦": 1606,
      "åĢĻ": 1607,
      "è¯Ŀ": 1608,
      "çľĭ": 1609,
      "æ°´å¹³": 1610,
      "è½®": 1611,
      "æĺł": 1612,
      "ç»ĵåĲĪ": 1613,
      "ä»·åĢ¼": 1614,
      "ãĢĭãĢĤ": 1615,
      "æĢĿæĥ³": 1616,
      "å·±": 1617,
      "å¤Ł": 1618,
      "ç»§": 1619,
      "ç½ĳç»ľ": 1620,
      "è§Ħå®ļ": 1621,
      "å³": 1622,
      "ä¼¯": 1623,
      "äºķ": 1624,
      "æĭ©": 1625,
      "ä»İèĢĮ": 1626,
      "èĻ«": 1627,
      "æľīåħ³": 1628,
      "æĹ¥æľ¬": 1629,
      "é¡»": 1630,
      "è¾ĳ": 1631,
      "å®¢": 1632,
      "éĺŁ": 1633,
      "å®ŀéªĮ": 1634,
      "ä¸°": 1635,
      "æīĺ": 1636,
      "åįļçī©é¦Ĩ": 1637,
      "ç¼º": 1638,
      "çī©çĲĨ": 1639,
      "çĻ¾": 1640,
      "æ°§åĮĸ": 1641,
      "æ¢°": 1642,
      "é±": 1643,
      "om": 1644,
      "éĺ¶æ®µ": 1645,
      "ç«Ļ": 1646,
      "çĳ": 1647,
      "æ²¡æľī": 1648,
      "ç¨³å®ļ": 1649,
      "çķĻ": 1650,
      "åĿĢ": 1651,
      "ä¼¤": 1652,
      "æĹ¶ä»£": 1653,
      "åĵĪ": 1654,
      "ä¹ĭéĹ´çļĦ": 1655,
      "äº²": 1656,
      "éļıçĿĢ": 1657,
      "é±¼": 1658,
      "éĩıçļĦ": 1659,
      "åĩ»": 1660,
      "æ³ķåĽ½": 1661,
      "ç¡®å®ļ": 1662,
      "æĿİ": 1663,
      "æĿŁ": 1664,
      "ä¸ĢäºĽ": 1665,
      "çī¹çĤ¹": 1666,
      "åĮĹäº¬": 1667,
      "èĲ¨": 1668,
      "çŁ¥è¯Ĩ": 1669,
      "è¡¡": 1670,
      "å£¤": 1671,
      "ä½įç½®": 1672,
      "åıĬåħ¶": 1673,
      "æĭħ": 1674,
      "çļĦåıĳå±ķ": 1675,
      "æŃ»": 1676,
      "å¡ŀ": 1677,
      "æĹĭ": 1678,
      "èĴĻ": 1679,
      "ct": 1680,
      "ç¬¬äºĮ": 1681,
      "ä¿¡åı·": 1682,
      "ä½Ľ": 1683,
      "æ¸Ĳ": 1684,
      "æĪĸèĢħ": 1685,
      "æĢ§èĥ½": 1686,
      "mat": 1687,
      "éĢīæĭ©": 1688,
      "è¿Ľåħ¥": 1689,
      "ä¸ºä¸»": 1690,
      "åĬĽåŃ¦": 1691,
      "çļĦéĩįè¦ģ": 1692,
      "ç¦»åŃĲ": 1693,
      "çĶ²": 1694,
      "åĩºçĶŁæĹ¥æľŁ": 1695,
      "ç¼©": 1696,
      "å¼ķèµ·": 1697,
      "am": 1698,
      "çĶ°": 1699,
      "æľīæķĪ": 1700,
      "çº¹": 1701,
      "æ²¿": 1702,
      "çİ°è±¡": 1703,
      "å±Ĭ": 1704,
      "é²ģ": 1705,
      "è¿Ļä¸Ģ": 1706,
      "}$": 1707,
      "åº§": 1708,
      "åĳĬ": 1709,
      "éķľ": 1710,
      "èŀį": 1711,
      "ä¿ĥ": 1712,
      "éĨ": 1713,
      "as": 1714,
      "çĽ¸å¯¹": 1715,
      "è¾Ĳ": 1716,
      "éĢŁåº¦": 1717,
      "å°ģ": 1718,
      "æĸ¹åĲĳ": 1719,
      "æŀ¶": 1720,
      "æľºæ¢°": 1721,
      "å¢ŀåĬł": 1722,
      "è¡ĮæĶ¿": 1723,
      "æ´Ľ": 1724,
      "ä¸įåĲĮçļĦ": 1725,
      "æ£®": 1726,
      "ç¨ĭåº¦": 1727,
      "ä¸Ĭæµ·": 1728,
      "æ²ī": 1729,
      "åħ«": 1730,
      "å¸Į": 1731,
      "å»¶": 1732,
      "åĤ¨": 1733,
      "éĽ·": 1734,
      "å¹³åĿĩ": 1735,
      "åħį": 1736,
      "æĲ": 1737,
      "ĠA": 1738,
      "èį·": 1739,
      "èĪ¹": 1740,
      "ä¸Ģå®ļ": 1741,
      "çĽ¸äºĴ": 1742,
      "åŃ¦å®¶": 1743,
      "è½´": 1744,
      "ä¼°": 1745,
      "å·¦": 1746,
      "éĺ»": 1747,
      "æī§": 1748,
      "è§ī": 1749,
      "å¨ģ": 1750,
      "ur": 1751,
      "éĴ¢": 1752,
      "ç»Ŀ": 1753,
      "åĬłå·¥": 1754,
      "éĹ»": 1755,
      "æ¦Ĥå¿µ": 1756,
      "å¼Ģåıĳ": 1757,
      "çī©çļĦ": 1758,
      "é¡¹çĽ®": 1759,
      "èģĶåĲĪ": 1760,
      "åĭĴ": 1761,
      "ed": 1762,
      "æ¯Ķè¾ĥ": 1763,
      "åŃ£": 1764,
      "åĪĨåĪ«": 1765,
      "å®£": 1766,
      "åľ£": 1767,
      "æ¯«": 1768,
      "èĩªå·±": 1769,
      "åľŁå£¤": 1770,
      "å®¡": 1771,
      "çļĦçłĶç©¶": 1772,
      "å¢ĵ": 1773,
      "æ¡£": 1774,
      "ä¸Ŀ": 1775,
      "åī¯": 1776,
      "ç¢³": 1777,
      "æ¨¡å¼ı": 1778,
      "æ³ķå¾ĭ": 1779,
      "æĪĳ": 1780,
      "è´Ŀ": 1781,
      "äººåĳĺ": 1782,
      "us": 1783,
      "è¡¨ç¤º": 1784,
      "ä½ı": 1785,
      "æĳĦå½±": 1786,
      "èĩªçĶ±": 1787,
      "å·¥èīº": 1788,
      "å¯¼èĩ´": 1789,
      "æīĢæľī": 1790,
      "èĽĭ": 1791,
      "é¡¶": 1792,
      "äº¤éĢļ": 1793,
      "çļĦä¸»è¦ģ": 1794,
      "å®«": 1795,
      "ä¸ĵä¸ļ": 1796,
      "ĠP": 1797,
      "å°º": 1798,
      "è¾¾åĪ°": 1799,
      "åĵ²": 1800,
      "èļ": 1801,
      "åºĬ": 1802,
      "ç»ĺ": 1803,
      "éĻ¶": 1804,
      "çģµ": 1805,
      "æ¹¿": 1806,
      "ä¸Ńåįİ": 1807,
      "æĪıåī§": 1808,
      "æīĵ": 1809,
      "æĪĲçļĦ": 1810,
      "éĻĪ": 1811,
      "å·Ŀ": 1812,
      "å¸Ĥåľº": 1813,
      "åĮ»åŃ¦": 1814,
      "çĽĲ": 1815,
      "ĠM": 1816,
      "æĵį": 1817,
      "and": 1818,
      "éĢı": 1819,
      "ä¿Ħ": 1820,
      "çıŃ": 1821,
      "èĥĮ": 1822,
      "æ¸¯": 1823,
      "æĪ¿": 1824,
      "æĭŁ": 1825,
      "ot": 1826,
      "èĥ½å¤Ł": 1827,
      "å¤®": 1828,
      "è¾Ĳå°Ħ": 1829,
      "å®ŀéĻħ": 1830,
      "å¤įæĿĤ": 1831,
      "æĻº": 1832,
      "60": 1833,
      "æĦıä¹ī": 1834,
      "em": 1835,
      "ĠT": 1836,
      "ä»¤": 1837,
      "å®ģ": 1838,
      "åłĤ": 1839,
      "å£ģ": 1840,
      "math": 1841,
      "ç¬¦": 1842,
      "åĲī": 1843,
      "âĳ£": 1844,
      "çİī": 1845,
      "ç»ĵæŀľ": 1846,
      "ç§ĳåŃ¦ä¸İ": 1847,
      "çļĦå½±åĵį": 1848,
      "åĿĹ": 1849,
      "çĽĸ": 1850,
      "åį±": 1851,
      "åģı": 1852,
      "çĭ¬ç«ĭ": 1853,
      "çĿ£": 1854,
      "èĸ": 1855,
      "èĥ¶": 1856,
      "ä¸Ńå¤®": 1857,
      "æĶ¿çŃĸ": 1858,
      "å¤ļç§į": 1859,
      "åĴĮåĽ½": 1860,
      "ä¼łæĴŃ": 1861,
      "åıįæĺł": 1862,
      "Ġin": 1863,
      "æ°ı": 1864,
      "èĦ±": 1865,
      "äººä»¬": 1866,
      "ä¸ĥ": 1867,
      "èĵ": 1868,
      "é¦Ļ": 1869,
      "å²¸": 1870,
      "åĶ±": 1871,
      "éĤ£": 1872,
      "åı³": 1873,
      "åİĺ": 1874,
      "ä¹Łæĺ¯": 1875,
      "åŃ¦æł¡": 1876,
      "ç½ª": 1877,
      "åĲĪçī©": 1878,
      "çļĩ": 1879,
      "è½¯": 1880,
      "å½©": 1881,
      "åĪº": 1882,
      "å¥ĩ": 1883,
      "ç³»ç»ŁçļĦ": 1884,
      "çº¤ç»´": 1885,
      "æľĽ": 1886,
      "åģ¥": 1887,
      "ch": 1888,
      "è¯Ħä»·": 1889,
      "æĢ§è´¨": 1890,
      "æ±¡æŁĵ": 1891,
      "èĭ¥": 1892,
      "æĺ¥": 1893,
      "æķĪåºĶ": 1894,
      "éĿĻ": 1895,
      "åİ»ä¸ĸæĹ¥æľŁ": 1896,
      "çĶŁäºİ": 1897,
      "åıĹåĪ°": 1898,
      "ä¸įèĥ½": 1899,
      "è£ħç½®": 1900,
      "um": 1901,
      "80": 1902,
      "è¯º": 1903,
      "è®²": 1904,
      "ç¼ĺ": 1905,
      "æ¶ī": 1906,
      "å¯¹è±¡": 1907,
      "åıĤæķ°": 1908,
      "âĦ": 1909,
      "èµĽ": 1910,
      "100": 1911,
      "âĦĥ": 1912,
      "å¾·åĽ½": 1913,
      "èĽĭçĻ½": 1914,
      "éĵ¶": 1915,
      "åŁºåĽł": 1916,
      "å°±æĺ¯": 1917,
      "åŁºäºİ": 1918,
      "éĩįè¦ģçļĦ": 1919,
      "ä¸¤ç§į": 1920,
      "åºŃ": 1921,
      "ç»¿": 1922,
      "éĢģ": 1923,
      "åĩĿ": 1924,
      "å®ĮæĪĲ": 1925,
      "ä¸ºäºĨ": 1926,
      "å´": 1927,
      "rac": 1928,
      "æŁ±": 1929,
      "åİŁåŃĲ": 1930,
      "åħ³äºİ": 1931,
      "åİĺç±³": 1932,
      "é¥°": 1933,
      "å¥Ĺ": 1934,
      "ï¼ļâĢľ": 1935,
      "è¯¸": 1936,
      "æĿ¾": 1937,
      "éĶ®": 1938,
      "åĵ¥": 1939,
      "å®ŀæĸ½": 1940,
      "ç»Łè®¡": 1941,
      "ä¾ĭå¦Ĥ": 1942,
      "un": 1943,
      "æ°ĶåĢĻ": 1944,
      "è§¦": 1945,
      "å¾ª": 1946,
      "åİĭåĬĽ": 1947,
      "çĥ§": 1948,
      "åģĩ": 1949,
      "æĮ¥": 1950,
      "åħ±åĴĮåĽ½": 1951,
      "éŃ": 1952,
      "ĊĊĊĊ": 1953,
      "è®¡åĪĴ": 1954,
      "éĿł": 1955,
      "ä¸įæĸŃ": 1956,
      "è´µ": 1957,
      "è½»": 1958,
      "åĽ¾ä¹¦é¦Ĩ": 1959,
      "190": 1960,
      "å¼ºåº¦": 1961,
      "åİĤ": 1962,
      "ãĢĤãĢĬ": 1963,
      "è¿ģ": 1964,
      "ra": 1965,
      "ph": 1966,
      "å©": 1967,
      "åħ¬åħ±": 1968,
      "éĥ¨éĹ¨": 1969,
      "id": 1970,
      "èĥ½éĩı": 1971,
      "è½¨": 1972,
      "çīĻ": 1973,
      "åıĤä¸İ": 1974,
      "è®Ń": 1975,
      "ç³»åĪĹ": 1976,
      "çĶŁéķ¿": 1977,
      "25": 1978,
      "éĵľ": 1979,
      "çļĦä¸Ģç§į": 1980,
      "åľ°çĲĨ": 1981,
      "åİŁåĪĻ": 1982,
      "æĽ¼": 1983,
      "æľīæľº": 1984,
      "ç²ī": 1985,
      "å¡ĳ": 1986,
      "mathrm": 1987,
      "çĪ¶": 1988,
      "éĻįä½İ": 1989,
      "è¿Ĳè¾ĵ": 1990,
      "è´§": 1991,
      "å¹³æĸ¹åįĥç±³": 1992,
      "æķħäºĭ": 1993,
      "æ±½": 1994,
      "æĸĹ": 1995,
      "æĿ¥çļĦ": 1996,
      "äººçī©": 1997,
      "æĢ§åĴĮ": 1998,
      "åİļ": 1999,
      "å±ŀäºİ": 2000,
      "éĢĲæ¸Ĳ": 2001,
      "è´¢": 2002,
      "æ¡¥": 2003,
      "çģ¾": 2004,
      "éĩİ": 2005,
      "åı¥": 2006,
      "åľŁåľ°": 2007,
      "èħĶ": 2008,
      "åĮĸçļĦ": 2009,
      "å¯Ĩåº¦": 2010,
      "ä¹ĭåĲİ": 2011,
      "æ¡£æ¡Ī": 2012,
      "çĸ¾": 2013,
      "åħ±åĲĮ": 2014,
      "40": 2015,
      "ul": 2016,
      "åħ¼": 2017,
      "ä¿ĥè¿Ľ": 2018,
      "æĹ¢": 2019,
      "åĪĨç±»": 2020,
      "è®¸å¤ļ": 2021,
      "åĩ½": 2022,
      "åĲ¦": 2023,
      "ä»ĸçļĦ": 2024,
      "åĺ": 2025,
      "åŁĥ": 2026,
      "è¿¹": 2027,
      "21": 2028,
      "æ¸Ķ": 2029,
      "å¿ħé¡»": 2030,
      "ä»ĸä»¬": 2031,
      "è®¡ç®Ĺæľº": 2032,
      "éľĢæ±Ĥ": 2033,
      "70": 2034,
      "æŀĦæĪĲ": 2035,
      "æ»ĳ": 2036,
      "éĺ´": 2037,
      "åĩºçĶŁåľ°çĤ¹": 2038,
      "æĺ¯åľ¨": 2039,
      "æ¯ķ": 2040,
      "im": 2041,
      "Ġb": 2042,
      "æİª": 2043,
      "èĪªç©º": 2044,
      "ym": 2045,
      "å¦Ĥæŀľ": 2046,
      "ãĢĤâĢĿ": 2047,
      "å¤§åĪ©": 2048,
      "æ»¡è¶³": 2049,
      "è¡Ĺ": 2050,
      "ç¥ŀç»ı": 2051,
      "æĸ°çļĦ": 2052,
      "æ³¥": 2053,
      "ä»į": 2054,
      "åŃ¦èĢħ": 2055,
      "ang": 2056,
      "ä¾µ": 2057,
      "æµĵ": 2058,
      "æµ·æ´ĭ": 2059,
      "å°½": 2060,
      "ä½ľå®¶": 2061,
      "åª": 2062,
      "æĳ©": 2063,
      "èİ«": 2064,
      "éĿ©åĳ½": 2065,
      "å¤ı": 2066,
      "éĵ¾": 2067,
      "åį´": 2068,
      "æ£Ģæµĭ": 2069,
      "ç²¾ç¥ŀ": 2070,
      "æľīçļĦ": 2071,
      "å¤§éĩı": 2072,
      "åĲĪä½ľ": 2073,
      "ä¿Ĺ": 2074,
      "æĮīçħ§": 2075,
      "åı¯åĪĨä¸º": 2076,
      "åĨħéĥ¨": 2077,
      "ds": 2078,
      "å¥ı": 2079,
      "åıĳè¡¨": 2080,
      "ç¹": 2081,
      "åŃ¦æľ¯": 2082,
      "ç«¥": 2083,
      "é¹": 2084,
      "èİ±": 2085,
      "ç¬Ķ": 2086,
      "ä¸°å¯Į": 2087,
      "äº§ä¸ļ": 2088,
      "æııè¿°": 2089,
      "æĶ¹åıĺ": 2090,
      "å¯º": 2091,
      "ç¹ģ": 2092,
      "è§Ħæ¨¡": 2093,
      "çĶļ": 2094,
      "å§Ĩ": 2095,
      "é»ı": 2096,
      "æ®Ĭ": 2097,
      "è®¢": 2098,
      "ä¹Ŀ": 2099,
      "çī¹åĪ«": 2100,
      "ĠL": 2101,
      "ag": 2102,
      "èĳĹä½ľ": 2103,
      "åħµ": 2104,
      "æľĢå¤§": 2105,
      "æķ°åŃĹ": 2106,
      "çī§": 2107,
      "çº¸": 2108,
      "æ¢ģ": 2109,
      "è¿ĺæľī": 2110,
      "å¼Ģå±ķ": 2111,
      "èµĦæĸĻ": 2112,
      "æĬĺ": 2113,
      "å°ļ": 2114,
      "æĢ¥": 2115,
      "çĪĨ": 2116,
      "æŃ¤å¤ĸ": 2117,
      "è¿ŀç»Ń": 2118,
      "æĸ°éĹ»": 2119,
      "åºŁ": 2120,
      "åįıä¼ļ": 2121,
      "éļĶ": 2122,
      "åľ°æĸ¹": 2123,
      "åĬ¨åĬĽ": 2124,
      "frac": 2125,
      "åľ°çĲĥ": 2126,
      "å½ĵæĹ¶": 2127,
      "æĹħ": 2128,
      "ç»ıè¿ĩ": 2129,
      "éĢĶ": 2130,
      "å½¢æĢģ": 2131,
      "åįĴ": 2132,
      "æ±ł": 2133,
      "æ±ĩ": 2134,
      "å¹ħ": 2135,
      "äº¡": 2136,
      "æ¯«ç±³": 2137,
      "æķ°éĩı": 2138,
      "æİªæĸ½": 2139,
      "çłģ": 2140,
      "è¿Ĳè¡Į": 2141,
      "çħ¤": 2142,
      "æ¹¾": 2143,
      "å°¤": 2144,
      "é¡º": 2145,
      "åĵ²åŃ¦": 2146,
      "çĽĺ": 2147,
      "çļĦæĸ¹æ³ķ": 2148,
      "ä»¥ä¸Ĭ": 2149,
      "ĠB": 2150,
      "iv": 2151,
      "éī": 2152,
      "ç³ĸ": 2153,
      "ä¹Į": 2154,
      "å°¾": 2155,
      "åĨ³å®ļ": 2156,
      "æİ¢æµĭ": 2157,
      "ä¼ļè®®": 2158,
      "éī´": 2159,
      "æ²»çĸĹ": 2160,
      "åĿı": 2161,
      "çī¹æĢ§": 2162,
      "æ½®": 2163,
      "é¡¿": 2164,
      "è¯¯": 2165,
      "ä¹Ļ": 2166,
      "Ġe": 2167,
      "è¡¨è¾¾": 2168,
      "åĨħçļĦ": 2169,
      "åĢŁ": 2170,
      "åĪĨç¦»": 2171,
      "é¼ĵ": 2172,
      "æĻļ": 2173,
      "åĲ¸æĶ¶": 2174,
      "ĠR": 2175,
      "æĹ©æľŁ": 2176,
      "éħ¶": 2177,
      "åħĥç´ł": 2178,
      "æ´ŀ": 2179,
      "æĵįä½ľ": 2180,
      "èµ°": 2181,
      "æĮĩæłĩ": 2182,
      "è§ĦèĮĥ": 2183,
      "èĢħçļĦ": 2184,
      "èĦĤ": 2185,
      "å¸Ń": 2186,
      "åĩºçļĦ": 2187,
      "çľ¼": 2188,
      "ä¸ĢæŃ¥": 2189,
      "åªĴ": 2190,
      "åĩ½æķ°": 2191,
      "åħ·ä½ĵ": 2192,
      "ĠH": 2193,
      "çĽĽ": 2194,
      "èľ": 2195,
      "çĶµè§Ĩ": 2196,
      "èĻļ": 2197,
      "ç¤¼": 2198,
      "è§Ĥæµĭ": 2199,
      "è®¨": 2200,
      "å¹³è¡¡": 2201,
      "ç¿»": 2202,
      "éļĨ": 2203,
      "ĠD": 2204,
      "ä½³": 2205,
      "ç»Łä¸Ģ": 2206,
      "ä»¥ä¸ĭ": 2207,
      "éĢĢ": 2208,
      "éĽħ": 2209,
      "æ°¢": 2210,
      "çī¹æ®Ĭ": 2211,
      "çĬ¯": 2212,
      "çīĽ": 2213,
      "èµ«": 2214,
      "éº¦": 2215,
      "èĥľ": 2216,
      "ä¿ĿæĮģ": 2217,
      "åį«æĺŁ": 2218,
      "å¢¨": 2219,
      "æķĻåŃ¦": 2220,
      "æĪĺäºī": 2221,
      "çļĦå¤§": 2222,
      "æķĪçİĩ": 2223,
      "èĻĳ": 2224,
      "äºĭä»¶": 2225,
      "åį°åº¦": 2226,
      "è°ĥæŁ¥": 2227,
      "è·µ": 2228,
      "æĸĩåŃĹ": 2229,
      "éĩįçĤ¹": 2230,
      "éľĩ": 2231,
      "äºĪ": 2232,
      "æĺİæĺ¾": 2233,
      "çĺ": 2234,
      "æ¨ª": 2235,
      "ä¸¹": 2236,
      "äº§çĶŁçļĦ": 2237,
      "90": 2238,
      "èĦĳ": 2239,
      "çĶ¨çļĦ": 2240,
      "å¼±": 2241,
      "åĨ°": 2242,
      "åĿ¡": 2243,
      "ä¸įä»ħ": 2244,
      "æķı": 2245,
      "é«ĺçļĦ": 2246,
      "çģ°": 2247,
      "æµ®": 2248,
      "çĽ¸åĲĮ": 2249,
      "ä¹Łæľī": 2250,
      "çĹĩ": 2251,
      "åĩıå°ĳ": 2252,
      "è®¾æĸ½": 2253,
      "è§£åĨ³": 2254,
      "ç©¿": 2255,
      "è°·": 2256,
      "é»İ": 2257,
      "èĻ½": 2258,
      "æ®ĭ": 2259,
      "ç§ĳæĬĢ": 2260,
      "çĨŁ": 2261,
      "åĪ¶éĢł": 2262,
      "äº¦": 2263,
      "ial": 2264,
      "æĤ£": 2265,
      "æĹ§": 2266,
      "æ¥¼": 2267,
      "å®ľ": 2268,
      "Ġl": 2269,
      "åĪĺ": 2270,
      "æĶ¯æĮģ": 2271,
      "æ¬§æ´²": 2272,
      "å¿ĥçĲĨ": 2273,
      "ä¾Ŀæį®": 2274,
      "è¹": 2275,
      "é²ľ": 2276,
      "çļĦåŁºç¡Ģ": 2277,
      "åİŁçĲĨ": 2278,
      "é£İæł¼": 2279,
      "æķĪæŀľ": 2280,
      "å³°": 2281,
      "æĸĩçĮ®": 2282,
      "éģ¿": 2283,
      "èĩªåĬ¨": 2284,
      "åıĤåĬł": 2285,
      "og": 2286,
      "éĶĢ": 2287,
      "ç¥ĸ": 2288,
      "è¿½": 2289,
      "åĲ¯": 2290,
      "è´¯": 2291,
      "ä¸ªäºº": 2292,
      "åħĪåĲİ": 2293,
      "åı¤ä»£": 2294,
      "ç¡«": 2295,
      "ç»ĥ": 2296,
      "od": 2297,
      "çĴ": 2298,
      "å¥½çļĦ": 2299,
      "å¤©çĦ¶": 2300,
      "ç´§": 2301,
      "è´¡": 2302,
      "çº¯": 2303,
      "å®ŀè·µ": 2304,
      "å²ģ": 2305,
      "æ´ª": 2306,
      "éľ²": 2307,
      "å®Įåħ¨": 2308,
      "ymbol": 2309,
      "ä½ĵèĤ²": 2310,
      "è¾ħ": 2311,
      "ä¹ħ": 2312,
      "th": 2313,
      "å¹´åľ¨": 2314,
      "æľĢæĹ©": 2315,
      "è¿Ľä¸ĢæŃ¥": 2316,
      "å®Ŀ": 2317,
      "çĽŁ": 2318,
      "bolds": 2319,
      "boldsymbol": 2320,
      "çĻ»": 2321,
      "æĿĢ": 2322,
      "éĽķ": 2323,
      "æīĭæ®µ": 2324,
      "ä¿Ŀè¯ģ": 2325,
      "ä¸ªä½ĵ": 2326,
      "çĶŁçī©åŃ¦": 2327,
      "åĸ·": 2328,
      "çĤī": 2329,
      "åĿĲ": 2330,
      "è¿Ļä¸ª": 2331,
      "å·²ç»ı": 2332,
      "éĢĤåºĶ": 2333,
      "ä»»åĬ¡": 2334,
      "çĥĪ": 2335,
      "åģľ": 2336,
      "å¯¼æ¼Ķ": 2337,
      "âĢĶâĢĶ": 2338,
      "å®Ī": 2339,
      "æľºåĪ¶": 2340,
      "éĤ¦": 2341,
      "æĪĲåĳĺ": 2342,
      "æ¾": 2343,
      "çĸ«": 2344,
      "äººæ°ĳåħ±åĴĮåĽ½": 2345,
      "24": 2346,
      "ç¡¬": 2347,
      "éķ¿æľŁ": 2348,
      "æĭħä»»": 2349,
      "ç«ŀ": 2350,
      "æ¯ķä¸ļ": 2351,
      "å½±çīĩ": 2352,
      "é¢Ĺ": 2353,
      "æ¢ħ": 2354,
      "os": 2355,
      "æ°¸": 2356,
      "é¢Ŀ": 2357,
      "æ²Ł": 2358,
      "åºĨ": 2359,
      "èĶ": 2360,
      "éĢłæĪĲ": 2361,
      "æ°Ķä½ĵ": 2362,
      "è®°å½ķ": 2363,
      "çĶ¨æĪ·": 2364,
      "é¢ĳçİĩ": 2365,
      "çĳŀ": 2366,
      "èĢĹ": 2367,
      "çĽ¸åºĶ": 2368,
      "âĢĿï¼Ī": 2369,
      "æĪĲåĪĨ": 2370,
      "é½Ĳ": 2371,
      "ä»½": 2372,
      "ä¸Ńåįİäººæ°ĳåħ±åĴĮåĽ½": 2373,
      "åĿ¦": 2374,
      "çİ°å®ŀ": 2375,
      "ä¸Ģå®ļçļĦ": 2376,
      "ç§Ģ": 2377,
      "å¥¹": 2378,
      "æķĻæİĪ": 2379,
      "åĬ¨æľº": 2380,
      "ï¼ĮâĢľ": 2381,
      "æ³°": 2382,
      "æĺ¯ä¸Ģç§į": 2383,
      "23": 2384,
      "ĠG": 2385,
      "åĽ½ç±į": 2386,
      "æĸĩçī©": 2387,
      "çºº": 2388,
      "è·Ŀç¦»": 2389,
      "æĺ¯æĮĩ": 2390,
      "è§Ħå¾ĭ": 2391,
      "Ġg": 2392,
      "å¾ªçİ¯": 2393,
      "ä»İäºĭ": 2394,
      "è°¢": 2395,
      "åĬ³åĬ¨": 2396,
      "åĲĪæĪĲ": 2397,
      "æĭīä¸ģ": 2398,
      "æĪª": 2399,
      "æĪĲæľ¬": 2400,
      "åĲ´": 2401,
      "èĢĲ": 2402,
      "çĶ·": 2403,
      "èķ": 2404,
      "å¿ĥçĲĨåŃ¦": 2405,
      "æĪıæĽ²": 2406,
      "ä¸»è¦ģæľī": 2407,
      "é£İéĻ©": 2408,
      "åŃ¦ä¼ļ": 2409,
      "éļĲ": 2410,
      "æł¸å¿ĥ": 2411,
      "èĴ¸": 2412,
      "é½¿": 2413,
      "22": 2414,
      "ç©ºæ°Ķ": 2415,
      "æī§è¡Į": 2416,
      "èĤĮ": 2417,
      "çĸ¾çĹħ": 2418,
      "éĥ½æĺ¯": 2419,
      "ç¬¬ä¸ī": 2420,
      "èĢ³": 2421,
      "é¢Ĩå¯¼": 2422,
      "æĭ¿": 2423,
      "ç®Ģåįķ": 2424,
      "éĽ¨": 2425,
      "æĮģç»Ń": 2426,
      "æķĳ": 2427,
      "æľŁéĹ´": 2428,
      "189": 2429,
      "çĦ¦": 2430,
      "ç§ĭ": 2431,
      "é©±": 2432,
      "é£ŀè¡Į": 2433,
      "ce": 2434,
      "åĳ³": 2435,
      "éĽĨä¸Ń": 2436,
      "åĮħåĲ«": 2437,
      "èļĢ": 2438,
      "æĽ¿": 2439,
      "èį¯çī©": 2440,
      "å®ĥä»¬": 2441,
      "å·¥åħ·": 2442,
      "èĢĥèĻĳ": 2443,
      "æ¿Ģåħī": 2444,
      "åº¦çļĦ": 2445,
      "åľ°ä¸ĭ": 2446,
      "å½¢æĪĲçļĦ": 2447,
      "ç£¨": 2448,
      "ä¹³": 2449,
      "æŃ£å¼ı": 2450,
      "èĩªæ²»": 2451,
      "æ½ľ": 2452,
      "åĸľ": 2453,
      "éģĹåĿĢ": 2454,
      "åĲİçļĦ": 2455,
      "ut": 2456,
      "è¯ĹæŃĮ": 2457,
      "éģį": 2458,
      "igh": 2459,
      "èģĮä¸ļ": 2460,
      "è¿ŀæİ¥": 2461,
      "éĢĴ": 2462,
      "å£³": 2463,
      "åıĳå°Ħ": 2464,
      "æĭį": 2465,
      "éĴ»": 2466,
      "Ġthe": 2467,
      "å¤ļä¸ª": 2468,
      "æĸ¹ç¨ĭ": 2469,
      "éĽĦ": 2470,
      "åľ°ä½į": 2471,
      "æīĢä»¥": 2472,
      "éĢļä¿¡": 2473,
      "çº²": 2474,
      "åŃ¦çĶŁ": 2475,
      "æģ©": 2476,
      "æ¼Ķåĩº": 2477,
      "çģĮ": 2478,
      "çļĦæĺ¯": 2479,
      "å·®å¼Ĥ": 2480,
      "å®¶åºŃ": 2481,
      "ä¸¥éĩį": 2482,
      "æĶ¹éĿ©": 2483,
      "èĸĦ": 2484,
      "è¦Ĩ": 2485,
      "èĢĮä¸Ķ": 2486,
      "å¤§æ°Ķ": 2487,
      "å¤ªéĺ³": 2488,
      "æĬ½": 2489,
      "å®ĩ": 2490,
      "ä»¥æĿ¥": 2491,
      "åħ¨çĲĥ": 2492,
      "æĿĨ": 2493,
      "éĽ¶": 2494,
      "ä¸įæĺ¯": 2495,
      "è§ĦåĪĻ": 2496,
      "è¯Ħä¼°": 2497,
      "æµģåĬ¨": 2498,
      "å¹´çļĦ": 2499,
      "çĹħæ¯Ĵ": 2500,
      "ä½ĵçİ°": 2501,
      "åĿļ": 2502,
      "ç»ıèĲ¥": 2503,
      "æĿ¡ä»¶ä¸ĭ": 2504,
      "çº¿æĢ§": 2505,
      "ç¼ĵ": 2506,
      "åįĴäºİ": 2507,
      "çº½": 2508,
      "è¯·": 2509,
      "æ¶īåıĬ": 2510,
      "ï¼ĮãĢĬ": 2511,
      "å¤ļæķ°": 2512,
      "ä¿Ŀéļľ": 2513,
      "åģ¥åº·": 2514,
      "åĳ¨æľŁ": 2515,
      "çĵ·": 2516,
      "ä½ľèĢħ": 2517,
      "Ġand": 2518,
      "èª": 2519,
      "è§Ī": 2520,
      "äººå·¥": 2521,
      "åŀĤ": 2522,
      "éĹŃ": 2523,
      "æľĢç»Ī": 2524,
      "æĸ¹æ¡Ī": 2525,
      "äº¿": 2526,
      "éĺµ": 2527,
      "è¶ĭ": 2528,
      "è¯¾": 2529,
      "ä½Ĩæĺ¯": 2530,
      "èģĶç³»": 2531,
      "è¾ĸ": 2532,
      "æįķ": 2533,
      "çĽĳæµĭ": 2534,
      "ç¾İæľ¯": 2535,
      "è§£éĩĬ": 2536,
      "åĪ¶å®ļ": 2537,
      "åıĻ": 2538,
      "æľĹ": 2539,
      "çºµ": 2540,
      "åĪļ": 2541,
      ")$": 2542,
      "ä¸»ä½ĵ": 2543,
      "åł¡": 2544,
      "éĻµ": 2545,
      "èĴĻåı¤": 2546,
      "æĪĲåĬŁ": 2547,
      "æ··åĲĪ": 2548,
      "åľĪ": 2549,
      "ä¸½": 2550,
      "åĪ¶ä½ľ": 2551,
      "01": 2552,
      "è®©": 2553,
      "ç½Ĺæĸ¯": 2554,
      "æķ´ä¸ª": 2555,
      "éĶĻ": 2556,
      "ĠF": 2557,
      "å·¨": 2558,
      "åĨ³çŃĸ": 2559,
      "ç§¦": 2560,
      "æļ´": 2561,
      "çİ»": 2562,
      "åĽłä¸º": 2563,
      "æī°": 2564,
      "åıĳèĤ²": 2565,
      "è¿ĲçĶ¨": 2566,
      "éĿ¢çļĦ": 2567,
      "å¸ķ": 2568,
      "èĤī": 2569,
      "ç»ĦåĲĪ": 2570,
      "éĻĲåĪ¶": 2571,
      "åİ»ä¸ĸåľ°çĤ¹": 2572,
      "ç³»æķ°": 2573,
      "ç§ĳåŃ¦ä¸İå·¥ç¨ĭ": 2574,
      "çļĦåŁºæľ¬": 2575,
      "èį£": 2576,
      "ç®Ģç§°": 2577,
      "åįĹéĥ¨": 2578,
      "æµĻ": 2579,
      "éĻ·": 2580,
      "çĶļèĩ³": 2581,
      "ä¼¸": 2582,
      "å¾ħ": 2583,
      "åĨĮ": 2584,
      "æĶ»": 2585,
      "åĢ¾": 2586,
      "ä»¥åĲİ": 2587,
      "äº¤æµģ": 2588,
      "æĻĭ": 2589,
      "é«ĺåº¦": 2590,
      "èµĦæľ¬": 2591,
      "NA": 2592,
      "åĮĹéĥ¨": 2593,
      "è¡¨æ¼Ķ": 2594,
      "çĥ¯": 2595,
      "å®ĹæķĻ": 2596,
      "è°ĥèĬĤ": 2597,
      "çĶĺ": 2598,
      "åĲĪçĲĨ": 2599,
      "ä»ªåĻ¨": 2600,
      "çĨĶ": 2601,
      "å¢Ļ": 2602,
      "å¼ºè°ĥ": 2603,
      "ãĢĢ": 2604,
      "æ¶¦": 2605,
      "èĥ¡": 2606,
      "ç¨ĭåºı": 2607,
      "å®ļä¹ī": 2608,
      "ĠE": 2609,
      "å»·": 2610,
      "æ³½": 2611,
      "åŁ¹åħ»": 2612,
      "æ£®æŀĹ": 2613,
      "åħ¸åŀĭ": 2614,
      "æ´¥": 2615,
      "è¡°": 2616,
      "åĦ¿ç«¥": 2617,
      "ç¨İ": 2618,
      "çģŃ": 2619,
      "ç²ĴåŃĲ": 2620,
      "è´Łè´£": 2621,
      "_\\": 2622,
      "000": 2623,
      "çķľ": 2624,
      "æľĢé«ĺ": 2625,
      "åĪĳ": 2626,
      "ir": 2627,
      "åħīåŃ¦": 2628,
      "å¸¸è§ģ": 2629,
      "èħĲ": 2630,
      "ç¢±": 2631,
      "ä»ĭè´¨": 2632,
      "çłĶç©¶æīĢ": 2633,
      "åłĨ": 2634,
      "èĤ¡": 2635,
      "åĽ¾åĥı": 2636,
      "èµĭ": 2637,
      "æİĺ": 2638,
      "éĩĩåıĸ": 2639,
      "å¯¿": 2640,
      "åŃ¦ä½į": 2641,
      "}{": 2642,
      "çļĦä½ľçĶ¨": 2643,
      "åį«çĶŁ": 2644,
      "åºĶåĬĽ": 2645,
      "æĺİç¡®": 2646,
      "çŁ©": 2647,
      "æ°¨": 2648,
      "åĪĽéĢł": 2649,
      "èĳĹåĲį": 2650,
      "æŃ£å¸¸": 2651,
      "è¾¨": 2652,
      "åĬ¨æĢģ": 2653,
      "èħ¹": 2654,
      "æķ´ä½ĵ": 2655,
      "å¤įåĲĪ": 2656,
      "ç§ĺ": 2657,
      "çļĦäºº": 2658,
      "ter": 2659,
      "é£ŀæľº": 2660,
      "è¹Ī": 2661,
      "çĲ´": 2662,
      "ä¸įåı¯": 2663,
      "ç»ıéªĮ": 2664,
      "æ¬¾": 2665,
      "æĿ¨": 2666,
      "å¤ļæł·": 2667,
      "ç§ģ": 2668,
      "æľĢä½³": 2669,
      "ç²Ĺ": 2670,
      "ä¼ı": 2671,
      "ight": 2672,
      "æĮĩå¯¼": 2673,
      "éģĵå¾·": 2674,
      "åıªæľī": 2675,
      "äº«": 2676,
      "åĩºäºĨ": 2677,
      "ä¸»è¦ģåĮħæĭ¬": 2678,
      "è®¤è¯Ĩ": 2679,
      "èĭĹ": 2680,
      "æİ¥è§¦": 2681,
      "æĥħåĨµä¸ĭ": 2682,
      "Ġa": 2683,
      "åĽºå®ļ": 2684,
      "éĴŁ": 2685,
      "åľ¨ä¸ŃåĽ½": 2686,
      "âĳ¤": 2687,
      "èĩªå·±çļĦ": 2688,
      "éĵģè·¯": 2689,
      "è²": 2690,
      "é¾Ħ": 2691,
      "èĮ¶": 2692,
      "ĠN": 2693,
      "éĴĪå¯¹": 2694,
      "èĪŀè¹Ī": 2695,
      "çĶŁåĳ½": 2696,
      "è¶ħè¿ĩ": 2697,
      "åıĳå±ķçļĦ": 2698,
      "op": 2699,
      "åİŁåĽł": 2700,
      "26": 2701,
      "æĭĶ": 2702,
      "èĤ¥": 2703,
      "æ»¤": 2704,
      "æ°´éĩı": 2705,
      "28": 2706,
      "æİ¥åıĹ": 2707,
      "è¿ħ": 2708,
      "ia": 2709,
      "èªī": 2710,
      "æĴ°": 2711,
      "é£Łåĵģ": 2712,
      "Ġn": 2713,
      "å¹³åı°": 2714,
      "æ®¿": 2715,
      "æıĲåĩºäºĨ": 2716,
      "Ġw": 2717,
      "ĠãĢĬ": 2718,
      "çł´åĿı": 2719,
      "è¿ª": 2720,
      "ä¼´": 2721,
      "è°ĵ": 2722,
      "å¹¼": 2723,
      "ç£·": 2724,
      "ä»¿": 2725,
      "åĳ¼": 2726,
      "å®Įæķ´": 2727,
      "å¹³éĿ¢": 2728,
      "æ¼Ķåĳĺ": 2729,
      "åħ³æ³¨": 2730,
      "æĭ¥": 2731,
      "è½¨éģĵ": 2732,
      "ç¡ħ": 2733,
      "åŃĻ": 2734,
      "çĸı": 2735,
      "æĦıè¯Ĩ": 2736,
      "27": 2737,
      "éŁµ": 2738,
      "ç§įç±»": 2739,
      "é¡¾": 2740,
      "å°¼äºļ": 2741,
      "æ¸Ĺ": 2742,
      "æľ±": 2743,
      "ä»Ģ": 2744,
      "æĬķèµĦ": 2745,
      "å¤§ä¼ļ": 2746,
      "æĪĲæŀľ": 2747,
      "Ġr": 2748,
      "åĲįä¸º": 2749,
      "èŃ": 2750,
      "å¤§å°ı": 2751,
      "oc": 2752,
      "éº»": 2753,
      "çĤİ": 2754,
      "âħ": 2755,
      "ç¦ģ": 2756,
      "åĽ°": 2757,
      "ist": 2758,
      "è¯Ĺäºº": 2759,
      "åħ¬åĽŃ": 2760,
      "æħ¢": 2761,
      "é¢Ĺç²Ĵ": 2762,
      "åĪ·": 2763,
      "æĺ¾ç¤º": 2764,
      "æĿ¥æºĲ": 2765,
      "ĠI": 2766,
      "æģ¢": 2767,
      "åįķåħĥ": 2768,
      "âĢ¦": 2769,
      "æķ¦": 2770,
      "çļĦè¿ĩç¨ĭ": 2771,
      "ç»ķ": 2772,
      "çŃ¾": 2773,
      "å¤Ħäºİ": 2774,
      "æĺ¯åĲ¦": 2775,
      "å½¢è±¡": 2776,
      "åı¦ä¸Ģ": 2777,
      "æ°ĳéĹ´": 2778,
      "ĠW": 2779,
      "æī¬": 2780,
      "åĩºçīĪç¤¾": 2781,
      "ä¸»è¦ģæĺ¯": 2782,
      "åĨĽäºĭ": 2783,
      "188": 2784,
      "æŁĲäºĽ": 2785,
      "éģĩ": 2786,
      "éĽª": 2787,
      "åºĦ": 2788,
      "ç´«": 2789,
      "æ¨¡æĭŁ": 2790,
      "æĿ¥èĩª": 2791,
      "èĲ¥åħ»": 2792,
      "åĲ«éĩı": 2793,
      "è¤": 2794,
      "è®¾ç½®": 2795,
      "è¾ĥå¤§": 2796,
      "åķĨä¸ļ": 2797,
      "åĪĽæĸ°": 2798,
      "è§Ĥå¯Ł": 2799,
      "æĿľ": 2800,
      "èĳ¬": 2801,
      "æĺ¯ä¸Ģ": 2802,
      "ine": 2803,
      "æĸ¯çī¹": 2804,
      "çĥŁ": 2805,
      "åĮĢ": 2806,
      "05": 2807,
      "è´¸": 2808,
      "çī¹å®ļ": 2809,
      "æĸľ": 2810,
      "èĩªèº«": 2811,
      "ä½¿å¾Ĺ": 2812,
      "å¼Ĺ": 2813,
      "è´£ä»»": 2814,
      "åľ°éĿ¢": 2815,
      "ity": 2816,
      "åıĺå½¢": 2817,
      "è²Į": 2818,
      "æ´»æĢ§": 2819,
      "eta": 2820,
      "ä¸ĭçļĦ": 2821,
      "è°ĥæķ´": 2822,
      "åĶ¯": 2823,
      "çĴĥ": 2824,
      "æĦıå¤§åĪ©": 2825,
      "éĤ»": 2826,
      "æģ¢å¤į": 2827,
      "æµĭè¯ķ": 2828,
      "è´¡çĮ®": 2829,
      "æİ¨åĬ¨": 2830,
      "ç¼ĸè¾ĳ": 2831,
      "å¯¸": 2832,
      "åĬłåħ¥": 2833,
      "ä¿ĿéĻ©": 2834,
      "æµĨ": 2835,
      "çłĤ": 2836,
      "ä»»ä½ķ": 2837,
      "è·¨": 2838,
      "èŃ¦": 2839,
      "å¯Ĵ": 2840,
      "çŃīæĸ¹éĿ¢": 2841,
      "æİĮ": 2842,
      "æľĢåĲİ": 2843,
      "å¿«éĢŁ": 2844,
      "åĻ¨çļĦ": 2845,
      "è®¿": 2846,
      "è´Ń": 2847,
      "æ°ĳä¸»": 2848,
      "å¹¶ä¸Ķ": 2849,
      "art": 2850,
      "åıĭ": 2851,
      "å¾Ģå¾Ģ": 2852,
      "ä½ľçī©": 2853,
      "åħ³éĶ®": 2854,
      "2000": 2855,
      "ç§¯æŀģ": 2856,
      "çĤ¼": 2857,
      "æµĻæ±Ł": 2858,
      "æĺ¯ä¸Ģä¸ª": 2859,
      "è¿Ľè¡ĮäºĨ": 2860,
      "éĴ±": 2861,
      "æľīéĻĲ": 2862,
      "æĬĳ": 2863,
      "çĦ¶åĲİ": 2864,
      "æŀĦéĢł": 2865,
      "åħ¨éĿ¢": 2866,
      "è¡Įä¸ļ": 2867,
      "æķ°åŃ¦": 2868,
      "åħ¹": 2869,
      "åĽ½åĨħ": 2870,
      "åĲ¬": 2871,
      "éĿŀæ´²": 2872,
      "è¡£": 2873,
      "=\\": 2874,
      "éĿŀå¸¸": 2875,
      "æ±Łèĭı": 2876,
      "åĩĢ": 2877,
      "åĲĽ": 2878,
      "Ġh": 2879,
      "åĽ½æ°ĳ": 2880,
      "æ²īç§¯": 2881,
      "è¸": 2882,
      "03": 2883,
      "ĠCh": 2884,
      "åıĸå¾Ĺ": 2885,
      "ical": 2886,
      "qu": 2887,
      "æĸĩä»¶": 2888,
      "èŀº": 2889,
      "æ§": 2890,
      "å·¦åı³": 2891,
      "æµª": 2892,
      "åĪ©äºļ": 2893,
      "èĢ¶": 2894,
      "çī©çĲĨåŃ¦": 2895,
      "åĲĪéĩĳ": 2896,
      "è½¬æį¢": 2897,
      "çļĦä¸Ģä¸ª": 2898,
      "ä¸ļåĬ¡": 2899,
      "çĶµæµģ": 2900,
      "æģĴ": 2901,
      "éĹ´çļĦ": 2902,
      "çº³ç±³": 2903,
      "ç´¯": 2904,
      "åħħåĪĨ": 2905,
      "æ£ĢéªĮ": 2906,
      "æĹħæ¸¸": 2907,
      "ĠJ": 2908,
      "æģ¶": 2909,
      "04": 2910,
      "Ġre": 2911,
      "è¿«": 2912,
      "èĭıèģĶ": 2913,
      "å¼ĢæĶ¾": 2914,
      "äºĨä¸Ģ": 2915,
      "è¯Ĭ": 2916,
      "æ³ī": 2917,
      "æ°®": 2918,
      "å¯Ħ": 2919,
      "é¢Ħæµĭ": 2920,
      "é©»": 2921,
      "é³": 2922,
      "ç»į": 2923,
      "çģ¯": 2924,
      "éĨĩ": 2925,
      "å©ļ": 2926,
      "çļĦç¤¾ä¼ļ": 2927,
      "è¾ŀ": 2928,
      "eg": 2929,
      "çĹĽ": 2930,
      "çŁ³æ²¹": 2931,
      "åºĻ": 2932,
      "åįµ": 2933,
      "æĻ®éģį": 2934,
      "è®°è½½": 2935,
      "èµĸ": 2936,
      "åıĳæĮ¥": 2937,
      "ç¿»è¯ĳ": 2938,
      "æĺĨ": 2939,
      "ä¸Ģèµ·": 2940,
      "æĹ¨": 2941,
      "ft": 2942,
      "æ£ĢæŁ¥": 2943,
      "è´¥": 2944,
      "å¡«": 2945,
      "è¦ģç´ł": 2946,
      "02": 2947,
      "éĢ»": 2948,
      "è£ģ": 2949,
      "è®ºæĸĩ": 2950,
      "ä¸Ľ": 2951,
      "ç½Ĺé©¬": 2952,
      "æ¾³": 2953,
      "åĤ¬": 2954,
      "ç«ŀäºī": 2955,
      "æĺ¯çĶ±": 2956,
      "è§Ĵåº¦": 2957,
      "èĴĤ": 2958,
      "æĭīä¸ģæĸĩåĲįç§°": 2959,
      "ta": 2960,
      "è¥¿æĸ¹": 2961,
      "å¾®çĶŁçī©": 2962,
      "è°Ī": 2963,
      "ç¢į": 2964,
      "ç¢İ": 2965,
      "çīĮ": 2966,
      "æ¸Ķä¸ļ": 2967,
      "ç»Łæ²»": 2968,
      "åıł": 2969,
      "çĲĨè§£": 2970,
      "åĮĸåĲĪçī©": 2971,
      "ä½ľä¸ļ": 2972,
      "çļĦé«ĺ": 2973,
      "çİ°ä»£åĮ»åŃ¦": 2974,
      "è¯¦": 2975,
      "æĶ¾å°Ħ": 2976,
      "Ġst": 2977,
      "å¯»": 2978,
      "åĨ¬": 2979,
      "è¯Ńç§į": 2980,
      "06": 2981,
      "ç¾Ĭ": 2982,
      "ä¼łæĦŁ": 2983,
      "è¡Ĺéģĵ": 2984,
      "çĶŁæĪĲ": 2985,
      "åĪ©çĽĬ": 2986,
      "éŃı": 2987,
      "éģĹä¼ł": 2988,
      "åħ¨éĥ¨": 2989,
      "ä¸»é¢ĺ": 2990,
      "æµĵåº¦": 2991,
      "08": 2992,
      "09": 2993,
      "åĬłå¼º": 2994,
      "æ¯Ķä¾ĭ": 2995,
      "çĥŃå¸¦": 2996,
      "ma": 2997,
      "Ġä¸ŃåĽ½": 2998,
      "ä¼ĳ": 2999,
      "æŀĿ": 3000,
      "é¦ĸæ¬¡": 3001,
      "è¯ī": 3002,
      "çĶµç£ģ": 3003,
      "07": 3004,
      "éĩįå¤§": 3005,
      "ä¹±": 3006,
      "ç¥¨": 3007,
      "å¾Īå¤ļ": 3008,
      "ç¨Ģ": 3009,
      "ç¢ĳ": 3010,
      "è¾ĵåĩº": 3011,
      "çİ»çĴĥ": 3012,
      "ç§ĳåŃ¦éĻ¢": 3013,
      "é¸Ł": 3014,
      "æĿĥåĪ©": 3015,
      "æ°¯": 3016,
      "åĺī": 3017,
      "^{": 3018,
      "éģŃ": 3019,
      "åĨľæĿĳ": 3020,
      "ä¸´åºĬ": 3021,
      "èĩ£": 3022,
      "å°Ħçº¿": 3023,
      "å¢ŀå¼º": 3024,
      "åĽłèĢĮ": 3025,
      "åİŁæĸĻ": 3026,
      "ç»ª": 3027,
      "éħĴ": 3028,
      "å¤§åŀĭ": 3029,
      "ä¸»å¼ł": 3030,
      "æĻ¶ä½ĵ": 3031,
      "æ¶Īè´¹": 3032,
      "çıł": 3033,
      "å®ª": 3034,
      "å·´é»İ": 3035,
      "æ¶Ĥ": 3036,
      "åıįå°Ħ": 3037,
      "é¢ľ": 3038,
      "è¾½": 3039,
      "çī¹èī²": 3040,
      "29": 3041,
      "é¥²": 3042,
      "åģ¶": 3043,
      "éĢ»è¾ĳ": 3044,
      "é¦ĸåħĪ": 3045,
      "åĽºä½ĵ": 3046,
      "äºĮåįģ": 3047,
      "å°¤åħ¶": 3048,
      "ä¸»ä»»": 3049,
      "ç«¹": 3050,
      "åįļå£«": 3051,
      "åİħ": 3052,
      "éŁ©": 3053,
      "åīª": 3054,
      "æĬ¥åĳĬ": 3055,
      "èĤ¿": 3056,
      "èĤł": 3057,
      "å¹´èİ·": 3058,
      "èĹ»": 3059,
      "éļĻ": 3060,
      "ç®Ĺæ³ķ": 3061,
      "ect": 3062,
      "åıĳåĬ¨æľº": 3063,
      "éĻĦè¿ĳ": 3064,
      "æī¾": 3065,
      "ç§ĳåŃ¦æĬĢæľ¯": 3066,
      "æĻ®éĢļ": 3067,
      "æµĭå®ļ": 3068,
      "åºĶçĶ¨äºİ": 3069,
      "æ¯ıä¸ª": 3070,
      "Â°": 3071,
      "Ġçİ°ä»£åĮ»åŃ¦": 3072,
      "åĩĨç¡®": 3073,
      "åı¬": 3074,
      "åĿĿ": 3075,
      "æıĲä¾ĽäºĨ": 3076,
      "è¯ĨåĪ«": 3077,
      "åĽĬ": 3078,
      "æĺĮ": 3079,
      "æĪĺçķ¥": 3080,
      "åĲİæĿ¥": 3081,
      "éľį": 3082,
      "è´¸æĺĵ": 3083,
      "æ³µ": 3084,
      "åĬ±": 3085,
      "ment": 3086,
      "ä¹İ": 3087,
      "è½¬åĮĸ": 3088,
      "å¦ĩ": 3089,
      "ä¸»å¸Ń": 3090,
      "å²©çŁ³": 3091,
      "å½¢çĬ¶": 3092,
      "åĵģç§į": 3093,
      "ä¿Ħç½Ĺæĸ¯": 3094,
      "å¼ıä¸Ń": 3095,
      "åĬĽçļĦ": 3096,
      "åĽ½åĬ¡": 3097,
      "æĶ¶åħ¥": 3098,
      "å®ŀè¡Į": 3099,
      "å¤ľ": 3100,
      "çĬ¶åĨµ": 3101,
      "çĩĥçĥ§": 3102,
      "ä¸Ģèĩ´": 3103,
      "é«ĺçŃī": 3104,
      "æĻºèĥ½": 3105,
      "äºĭä¸ļ": 3106,
      "æĭĵ": 3107,
      "è§ĤçĤ¹": 3108,
      "åħīè°±": 3109,
      "æ¦": 3110,
      "åĬłæĭ¿": 3111,
      "åıįå¯¹": 3112,
      "35": 3113,
      "è½¯ä»¶": 3114,
      "çľŁå®ŀ": 3115,
      "åĩºåľŁ": 3116,
      "åĿĩåĮĢ": 3117,
      "éŀ": 3118,
      "æ³¡": 3119,
      "åıĺéĩı": 3120,
      "æĸĩèīº": 3121,
      "å®¾": 3122,
      "187": 3123,
      "ä¸ĺ": 3124,
      "æıŃ": 3125,
      "åĶ®": 3126,
      "äº¤æį¢": 3127,
      "æķĻå¸Ī": 3128,
      "æ¸ħä»£": 3129,
      "çļĨ": 3130,
      "åį¢": 3131,
      "è¯´æĺİ": 3132,
      "åĨł": 3133,
      "ad": 3134,
      "åĲĦä¸ª": 3135,
      "æ¢¯": 3136,
      "ç½²": 3137,
      "çĽ¸äºĴä½ľçĶ¨": 3138,
      "å¯¹åºĶ": 3139,
      "è¿ĽæŃ¥": 3140,
      "ure": 3141,
      "æ¸¡": 3142,
      "è¾ĥä¸º": 3143,
      "èĻ½çĦ¶": 3144,
      "èħĬ": 3145,
      "å¤ļçļĦ": 3146,
      "dot": 3147,
      "åĬŁçİĩ": 3148,
      "æįŁå¤±": 3149,
      "èĵĿ": 3150,
      "çººç»ĩ": 3151,
      "çŁ¿çī©": 3152,
      "åĲĦç±»": 3153,
      "é¢ģ": 3154,
      "åĢį": 3155,
      "èĭ¦": 3156,
      "}\\": 3157,
      "æ´Ĺ": 3158,
      "åĲĮä¸Ģ": 3159,
      "åľ¨äºİ": 3160,
      "çĬ¯ç½ª": 3161,
      "çĽĨ": 3162,
      "æ°´åĪ©": 3163,
      "ess": 3164,
      "ri": 3165,
      "ç§»åĬ¨": 3166,
      "ong": 3167,
      "çĽĳçĿ£": 3168,
      "æĸ½å·¥": 3169,
      "å°ĸ": 3170,
      "è¡ĮåĬ¨": 3171,
      "è§ģåĽ¾": 3172,
      "çļĦåıĺåĮĸ": 3173,
      "èĪªå¤©": 3174,
      "æĶ¹åĸĦ": 3175,
      "çļĦæĸ¹å¼ı": 3176,
      "ÃĹ": 3177,
      "å±±ä¸ľ": 3178,
      "çĶ³": 3179,
      "ant": 3180,
      "å®ı": 3181,
      "åį°åĪ·": 3182,
      "æŁı": 3183,
      "Ġv": 3184,
      "æļĹ": 3185,
      "æĭľ": 3186,
      "çļĦä¸įåĲĮ": 3187,
      "æĽ²çº¿": 3188,
      "åįıè°ĥ": 3189,
      "éĺ¶çº§": 3190,
      "å°ºå¯¸": 3191,
      "æµģä½ĵ": 3192,
      "æµħ": 3193,
      "æĢĢ": 3194,
      "å¸®": 3195,
      "æľºåħ³": 3196,
      "ä¸ĵéĹ¨": 3197,
      "$ï¼Į": 3198,
      "é«ĺæ¸©": 3199,
      "åĳĪçİ°": 3200,
      "éļıæľº": 3201,
      "éĢĨ": 3202,
      "æ²³æµģ": 3203,
      "ç®±": 3204,
      "ä¹ĺ": 3205,
      "æĸĳ": 3206,
      "éģ¿åħį": 3207,
      "æĿĤå¿Ĺ": 3208,
      "éģĹäº§": 3209,
      "ç»´æĬ¤": 3210,
      "åľ°çļĦ": 3211,
      "ä¹Łåı¯ä»¥": 3212,
      "ç¾¤ä½ĵ": 3213,
      "å¾Ĵ": 3214,
      "æłĩå¿Ĺ": 3215,
      "æĹłæ³ķ": 3216,
      "èĥĮæĻ¯": 3217,
      "æ¡ĳ": 3218,
      "ä¿ĿåŃĺ": 3219,
      "ç¬¦åĲĪ": 3220,
      "æ©": 3221,
      "å°ĳæķ°": 3222,
      "éģĵè·¯": 3223,
      "ä¼łéĢĴ": 3224,
      "æıĲåįĩ": 3225,
      "éĻ¤äºĨ": 3226,
      "çİĽ": 3227,
      "çº¬": 3228,
      "ä¸Ģæ¬¡": 3229,
      "éķ¿åº¦": 3230,
      "èµŀ": 3231,
      "åľ°éľĩ": 3232,
      "èĪŀåı°": 3233,
      "ä¸īä¸ª": 3234,
      "çĺ¤": 3235,
      "åİŁè¯Ńç§į": 3236,
      "åİŁè¯Ńç§įåĲįç§°": 3237,
      "è¿ħéĢŁ": 3238,
      "ä»£è¡¨ä½ľåĵģ": 3239,
      "ç¿¼": 3240,
      "èı²": 3241,
      "Ġ{": 3242,
      "æĮ¯åĬ¨": 3243,
      "å®ļä½į": 3244,
      "åĪºæ¿Ģ": 3245,
      "è´«": 3246,
      "çļĦæĸ°": 3247,
      "å¼Ł": 3248,
      "æĦ¿": 3249,
      "ç§Ĵ": 3250,
      "åī§éĻ¢": 3251,
      "ç¤¾åĮº": 3252,
      "åŃĺåĤ¨": 3253,
      "æĤ¬": 3254,
      "æ²³åįĹ": 3255,
      "åĨ¶": 3256,
      "äº®": 3257,
      "æĺ¯ä¸ŃåĽ½": 3258,
      "è®Ńç»ĥ": 3259,
      "æµģè¡Į": 3260,
      "ä»ĺ": 3261,
      "åĬłæĭ¿å¤§": 3262,
      "å´ĩ": 3263,
      "ç¨¿": 3264,
      "2018": 3265,
      "å¹¶åľ¨": 3266,
      "èħº": 3267,
      "çĽ¸ä¼¼": 3268,
      "right": 3269,
      "çıį": 3270,
      "åĽ½åĬ¡éĻ¢": 3271,
      "ä¹Łåı¯": 3272,
      "ç®¡éģĵ": 3273,
      "ç±»ä¼¼": 3274,
      "åıĳè¡Į": 3275,
      "æĪĲçĨŁ": 3276,
      "å¤§äºİ": 3277,
      "åı¯éĿł": 3278,
      "æĿ°": 3279,
      "æ¶µ": 3280,
      "æĹ¶çļĦ": 3281,
      "æ·¡": 3282,
      "åİŁå§ĭ": 3283,
      "æĭ¥æľī": 3284,
      "186": 3285,
      "èİ·åıĸ": 3286,
      "ä¸ŃéĹ´": 3287,
      "åħ»æ®ĸ": 3288,
      "æº¶æ¶²": 3289,
      "æĺ¾èĳĹ": 3290,
      "ãĢĤâĢľ": 3291,
      "åĭĺ": 3292,
      "è¾ĵåħ¥": 3293,
      "ãĢĭãĢģ": 3294,
      "è¦ĨçĽĸ": 3295,
      "æ¡Ĩ": 3296,
      "åĤ¬åĮĸ": 3297,
      "åĽĽå·Ŀ": 3298,
      "æĸ¯åĿ¦": 3299,
      "%ï¼Į": 3300,
      "åıĳå¸ĥ": 3301,
      "åıĳçĶµ": 3302,
      "éļ¶": 3303,
      "èıľ": 3304,
      "æĢ»ä½ĵ": 3305,
      "è¿Ļæł·": 3306,
      "èĭ¯": 3307,
      "æĭįæĳĦ": 3308,
      "ä»·æł¼": 3309,
      "éĿĴå¹´": 3310,
      "èµ·æĿ¥": 3311,
      "åĩ¡": 3312,
      "çŃĴ": 3313,
      "åĮ»çĸĹ": 3314,
      "å¹¿æĴŃ": 3315,
      "çŃīçº§": 3316,
      "æİ¥æĶ¶": 3317,
      "éĩįæĸ°": 3318,
      "çĤ¸": 3319,
      "ç§ĳåŃ¦ä¸İæĬĢæľ¯": 3320,
      "ä¼łè¾ĵ": 3321,
      "ap": 3322,
      "è®¾ç«ĭ": 3323,
      "æ¼«": 3324,
      "æµģéĩı": 3325,
      "é¼ł": 3326,
      "çŀ": 3327,
      "ç»§ç»Ń": 3328,
      "Ġpro": 3329,
      "åĿĲæłĩ": 3330,
      "è¶£": 3331,
      "_{\\": 3332,
      "å¢ŀéķ¿": 3333,
      "æĥ¯": 3334,
      "æľŁåĪĬ": 3335,
      "è½¬ç§»": 3336,
      "æ³¨æĦı": 3337,
      "å°Ĭ": 3338,
      "ä¹Ī": 3339,
      "äºĭæķħ": 3340,
      "æ£ī": 3341,
      "ç²¾åº¦": 3342,
      "æ²ĥ": 3343,
      "ç¯ĩå°ıè¯´": 3344,
      "åĪĨéħį": 3345,
      "åģ¿": 3346,
      "å¹ķ": 3347,
      "åĽłåŃĲ": 3348,
      "å±ħæ°ĳ": 3349,
      "çļĦåŁºç¡Ģä¸Ĭ": 3350,
      "åħ¬åħĥ": 3351,
      "éĩįè§Ĩ": 3352,
      "éĥ½æľī": 3353,
      "å¤§éĥ¨åĪĨ": 3354,
      "çĶµåİĭ": 3355,
      "å¾¡": 3356,
      "çĽ¸å½ĵ": 3357,
      "éĶ¡": 3358,
      "èĽĭçĻ½è´¨": 3359,
      "æĤ£èĢħ": 3360,
      "èµĦäº§": 3361,
      "åī²": 3362,
      "å±Ģéĥ¨": 3363,
      "éĢĤçĶ¨äºİ": 3364,
      "ä¼łæĦŁåĻ¨": 3365,
      "è±Ĩ": 3366,
      "èµµ": 3367,
      "åĲ«æľī": 3368,
      "èĥ½æºĲ": 3369,
      "è½¬åıĺ": 3370,
      "åĪ©äºİ": 3371,
      "ä¸ĵå®¶": 3372,
      "åĬª": 3373,
      "è¯¢": 3374,
      "æ®ĸæ°ĳ": 3375,
      "ä¼ĺåĬ¿": 3376,
      "è¢«ç§°ä¸º": 3377,
      "ç»ıåİĨ": 3378,
      "åľ°å±Ĥ": 3379,
      "åħįçĸ«": 3380,
      "åŃ¢": 3381,
      "åºĹ": 3382,
      "åºıåĪĹ": 3383,
      "äº§çī©": 3384,
      "éĵ¸": 3385,
      "æ°Ķæ¸©": 3386,
      "å¤¹": 3387,
      "æĥħæĬ¥": 3388,
      "çĥ·": 3389,
      "éĩıåŃĲ": 3390,
      "ä»°": 3391,
      "å®ĮåĸĦ": 3392,
      "ç»ıæµİåŃ¦": 3393,
      "ä»£è°¢": 3394,
      "ç»ĵæŀĦçļĦ": 3395,
      "ç¼Ŀ": 3396,
      "èĩªæĪĳ": 3397,
      "æľ¬èº«": 3398,
      "çĽ¾": 3399,
      "ä¸ľåĮĹ": 3400,
      "ç¬¬ä¸Ģæ¬¡": 3401,
      "éĥİ": 3402,
      "åĳ¨åĽ´": 3403,
      "éĺĲ": 3404,
      "å¯¹ç§°": 3405,
      "å¾Ĳ": 3406,
      "æ¦Ĥçİĩ": 3407,
      "å®¹æĺĵ": 3408,
      "æıĴ": 3409,
      "æŁĲä¸Ģ": 3410,
      "ov": 3411,
      "æ¸ł": 3412,
      "å±ĭ": 3413,
      "ow": 3414,
      "å«": 3415,
      "çī¹åĪ«æĺ¯": 3416,
      "åĪĢ": 3417,
      "èĿ": 3418,
      "å¼¦": 3419,
      "åįĹåĮĹ": 3420,
      "çļĦçĲĨè®º": 3421,
      "è¡¨æĺİ": 3422,
      "ç¨³å®ļæĢ§": 3423,
      "åĩłä½ķ": 3424,
      "æı¡": 3425,
      "çļĦåİĨåı²": 3426,
      "è®¤çŁ¥": 3427,
      "ä¸ĢçĽ´": 3428,
      "éħ¯": 3429,
      "åĻª": 3430,
      "å±Ĥæ¬¡": 3431,
      "ian": 3432,
      "æĺİä»£": 3433,
      "åĪĽå»º": 3434,
      "èĥİ": 3435,
      "åŀĤçĽ´": 3436,
      "åħ½": 3437,
      "éĵĿ": 3438,
      "æİ¨è¿Ľ": 3439,
      "ä¸¾åĬŀ": 3440,
      "æ¶²ä½ĵ": 3441,
      "çĽ¸æ¯Ķ": 3442,
      "çĩĥæĸĻ": 3443,
      "èĤº": 3444,
      "æĦŁæŁĵ": 3445,
      "yst": 3446,
      "çĶµæŀģ": 3447,
      "éĻķ": 3448,
      "çĽ¸åºĶçļĦ": 3449,
      "éļľç¢į": 3450,
      "çĲĨäºĭ": 3451,
      "ä¼ĺåĮĸ": 3452,
      "åıĤèĢĥ": 3453,
      "Ġfor": 3454,
      "æĿĲæĸĻçļĦ": 3455,
      "åĲĦåĽ½": 3456,
      "åķĨåĵģ": 3457,
      "è§Ĥä¼Ĺ": 3458,
      "ä¼ĺç§Ģ": 3459,
      "éĺ¿æĭī": 3460,
      "Ġ=": 3461,
      "åĻ¨ä»¶": 3462,
      "åĬ¨ä½ľ": 3463,
      "å¼ķèµ·çļĦ": 3464,
      "åĿĽ": 3465,
      "æĽ´åĬł": 3466,
      "å¯¼ä½ĵ": 3467,
      "ç»ıåħ¸": 3468,
      "éĺģ": 3469,
      "èĢĮæĺ¯": 3470,
      "per": 3471,
      "åįĹäº¬": 3472,
      "è°Ĳ": 3473,
      "ä¸ĭéĻį": 3474,
      "å¼¹æĢ§": 3475,
      "åĴĮç¤¾ä¼ļ": 3476,
      "åĬ¨åĬĽåŃ¦": 3477,
      "å¼ĥ": 3478,
      "åı¦å¤ĸ": 3479,
      "åĪ¤æĸŃ": 3480,
      "é£İæĻ¯": 3481,
      "%ãĢĤ": 3482,
      "çĶµè·¯": 3483,
      "å¸ĮèħĬ": 3484,
      "èĤ¾": 3485,
      "å¤ĸéĥ¨": 3486,
      "èī²å½©": 3487,
      "åĲĮå¹´": 3488,
      "çĸĨ": 3489,
      "ç¬¦åı·": 3490,
      "åľ°åĮºçļĦ": 3491,
      "æīįèĥ½": 3492,
      "æĬµ": 3493,
      "ï¼Ľ$": 3494,
      "å½¼": 3495,
      "èµı": 3496,
      "æ²»çĲĨ": 3497,
      "Ġcon": 3498,
      "æīĢåľ¨": 3499,
      "å£®": 3500,
      "åįģåĪĨ": 3501,
      "ç©´": 3502,
      "æī©å¤§": 3503,
      "èŀįåĲĪ": 3504,
      "çļĦåħ³ç³»": 3505,
      "åľĨå½¢": 3506,
      "æĬĳåĪ¶": 3507,
      "è¿ĳä»£": 3508,
      "çĶ¨æĿ¥": 3509,
      "èģĶçĽŁ": 3510,
      "çłĶåĪ¶": 3511,
      "éŁ¦": 3512,
      "ä»Ļ": 3513,
      "éĢļéģĵ": 3514,
      "æ¥ļ": 3515,
      "ep": 3516,
      "ab": 3517,
      "äººä½ĵ": 3518,
      "éģµ": 3519,
      "æĹ±": 3520,
      "å¾½": 3521,
      "èµ¤": 3522,
      "åĪĽåĬŀ": 3523,
      "ä½ĽæķĻ": 3524,
      "45": 3525,
      "å±ķè§Ī": 3526,
      "æī¹è¯Ħ": 3527,
      "éĢĲæŃ¥": 3528,
      "è¾¹çķĮ": 3529,
      "èĥº": 3530,
      "åĬłçĥŃ": 3531,
      "èĪį": 3532,
      "ä»ģ": 3533,
      "çĶŁæĢģç³»ç»Ł": 3534,
      "è¡į": 3535,
      "çļĦå½¢å¼ı": 3536,
      "æįŁä¼¤": 3537,
      "æŃ¤åĲİ": 3538,
      "æĪĪ": 3539,
      "é©±åĬ¨": 3540,
      "å½¹": 3541,
      "ä¸Ļ": 3542,
      "åıī": 3543,
      "æĸ¹éĿ¢çļĦ": 3544,
      "2019": 3545,
      "è¥¿çıŃ": 3546,
      "åĪĴåĪĨ": 3547,
      "å°Ĩåħ¶": 3548,
      "èī¾": 3549,
      "ä¼°è®¡": 3550,
      "é©¬åħĭ": 3551,
      "è¥¿çıŃçīĻ": 3552,
      "è¾Ľ": 3553,
      "çłĶç©¶çļĦ": 3554,
      "åĪĨè§£": 3555,
      "é¥®": 3556,
      "å¸ģ": 3557,
      "çº±": 3558,
      "åĲİæľŁ": 3559,
      "å¹¿ä¸ľ": 3560,
      "ä¹ı": 3561,
      "å¤ļæ¬¡": 3562,
      "æŃ»äº¡": 3563,
      "if": 3564,
      "å²Ń": 3565,
      "æĪĲåĥı": 3566,
      "åĨľæ°ĳ": 3567,
      "äº¤æĺĵ": 3568,
      "æ³Ĭ": 3569,
      "çī©ç§į": 3570,
      "å¹´ä»»": 3571,
      "éĽĨåĽ¢": 3572,
      "å¤§éĻĨ": 3573,
      "éĥ¨ä½į": 3574,
      "ec": 3575,
      "olog": 3576,
      "å¹¶ä¸į": 3577,
      "æīİ": 3578,
      "èĦĬ": 3579,
      "èģĶéĤ¦": 3580,
      "äºĨè§£": 3581,
      "åįģäºĮ": 3582,
      "è¿Ķ": 3583,
      "å¥ī": 3584,
      "å¿Ĩ": 3585,
      "ĠY": 3586,
      "çĲĨæĥ³": 3587,
      "è¿Ļæĺ¯": 3588,
      "ĠçĶŁçī©åŃ¦": 3589,
      "æ¢¦": 3590,
      "æ²³åĮĹ": 3591,
      "èĦīåĨ²": 3592,
      "åĮĸå·¥": 3593,
      "éĥ¡": 3594,
      "è¾ĥé«ĺ": 3595,
      "èĳĹèĢħ": 3596,
      "æĢ»ç»Ł": 3597,
      "åħ¨ä¹¦": 3598,
      "è¥¿åįĹ": 3599,
      "çļĦæ°´": 3600,
      "çļĦæĬĢæľ¯": 3601,
      "var": 3602,
      "åĢĴ": 3603,
      "åĪ¶å¤ĩ": 3604,
      "å±ķç¤º": 3605,
      "ç¥Ń": 3606,
      "æľĢå¤§çļĦ": 3607,
      "éĢĶå¾Ħ": 3608,
      "æĮĩåĩº": 3609,
      "å¸ĿåĽ½": 3610,
      "è¥¿åĮĹ": 3611,
      "éĺ²æŃ¢": 3612,
      "å®īè£ħ": 3613,
      "è¾ħåĬ©": 3614,
      "å¥´": 3615,
      "éĺĶ": 3616,
      "ç»ĦæĪĲçļĦ": 3617,
      "æī©æķ£": 3618,
      "æĤ²": 3619,
      "ç°": 3620,
      "æ·±åħ¥": 3621,
      "å¹³æĸ¹ç±³": 3622,
      "éĽĨæĪĲ": 3623,
      "èĦļ": 3624,
      "å®¢è§Ĥ": 3625,
      "è¯±": 3626,
      "å½¢æĪĲäºĨ": 3627,
      "æºª": 3628,
      "éĩįåĬĽ": 3629,
      "æµ·æĭĶ": 3630,
      "åľ¨æŃ¤": 3631,
      "æī«": 3632,
      "æ·±åº¦": 3633,
      "ast": 3634,
      "èĢĮè¨Ģ": 3635,
      "æŁĲç§į": 3636,
      "éĺħ": 3637,
      "è£ħé¥°": 3638,
      "åŃĲçļĦ": 3639,
      "èĥĢ": 3640,
      "åı°æ¹¾": 3641,
      "èĦı": 3642,
      "é¦Ļæ¸¯": 3643,
      "ive": 3644,
      "ç¤¾ä¼ļåŃ¦": 3645,
      "èĢķ": 3646,
      "æī©å±ķ": 3647,
      "åĪĨå¸ĥäºİ": 3648,
      "çŃīçļĦ": 3649,
      "ãĢģãĢĬ": 3650,
      "éĺ¿å°Ķ": 3651,
      "ä½ĵç§¯": 3652,
      "æłª": 3653,
      "å¼Ĥå¸¸": 3654,
      "å·§": 3655,
      "åĮ¹": 3656,
      "å¦Ĥä½ķ": 3657,
      "è§Ĥå¿µ": 3658,
      "è¯¯å·®": 3659,
      "ä¸¾è¡Į": 3660,
      "ĠåĮĸåŃ¦": 3661,
      "çĶŁçĲĨ": 3662,
      "æŁĶ": 3663,
      "å½ĵä»£": 3664,
      "çģ¾å®³": 3665,
      "æķ´çĲĨ": 3666,
      "æķ°æį®åºĵ": 3667,
      "èµĦæºĲä¸İ": 3668,
      "èĮ¨": 3669,
      "æĻ¯è§Ĥ": 3670,
      "åĮºçļĦ": 3671,
      "ç£ģåľº": 3672,
      "ä¸¥æł¼": 3673,
      "ä¹°": 3674,
      "è¯ĬæĸŃ": 3675,
      "ä¸ľåįĹ": 3676,
      "åħ¬è·¯": 3677,
      "(\\": 3678,
      "çŁĽ": 3679,
      "185": 3680,
      "å¯ĨåĪĩ": 3681,
      "æııåĨĻ": 3682,
      "æĺ¯å¯¹": 3683,
      "ip": 3684,
      "æ¯Ķäºļ": 3685,
      "èĥ¸": 3686,
      "éĻ¶çĵ·": 3687,
      "ï¼īï¼Ľ": 3688,
      "å¸®åĬ©": 3689,
      "å¤§æĪĺ": 3690,
      "åªĴä½ĵ": 3691,
      "ho": 3692,
      "æł·åĵģ": 3693,
      "åºĶå½ĵ": 3694,
      "å¹²æī°": 3695,
      "æĲľ": 3696,
      "ä¸Ģç³»åĪĹ": 3697,
      "çºªå¿µ": 3698,
      "ä¼łç»ŁçļĦ": 3699,
      "ç©Ĩ": 3700,
      "åı¯è§ģ": 3701,
      "åĪ°äºĨ": 3702,
      "ĠK": 3703,
      "çĩ¥": 3704,
      "éģ¥": 3705,
      "æİ¢ç´¢": 3706,
      "å¹´éĹ´": 3707,
      "è®¡éĩı": 3708,
      "æ§½": 3709,
      "èĮĥåĽ´åĨħ": 3710,
      "ä¹ĭåīį": 3711,
      "çŃĶ": 3712,
      "36": 3713,
      "æ¬¢": 3714,
      "è´´": 3715,
      "æ´ģ": 3716,
      "åİĭç¼©": 3717,
      "å®£ä¼ł": 3718,
      "est": 3719,
      "ä¸»ç¼ĸ": 3720,
      "åīĬ": 3721,
      "çĽ´å¾Ħ": 3722,
      "è¥¿éĥ¨": 3723,
      "2020": 3724,
      "æ¾³å¤§åĪ©": 3725,
      "çĭŃ": 3726,
      "æĸĩç«ł": 3727,
      "æĮĩæķ°": 3728,
      "æ¾³å¤§åĪ©äºļ": 3729,
      "å®ŀéªĮå®¤": 3730,
      "ç»ĵæĿŁ": 3731,
      "çĭ¬çī¹": 3732,
      "æºĲäºİ": 3733,
      "ä¹ĥ": 3734,
      "ä¸įè¶³": 3735,
      "iz": 3736,
      "çĤ¹çļĦ": 3737,
      "æľĢå°ı": 3738,
      "ä½¿çĶ¨çļĦ": 3739,
      "ç±įè´¯": 3740,
      "èįīåİŁ": 3741,
      "éĩĳèŀį": 3742,
      "é»ĺ": 3743,
      "æŀ¢": 3744,
      "é¼»": 3745,
      "æİĴåĪĹ": 3746,
      "åĲ¨": 3747,
      "çĶ±æŃ¤": 3748,
      "æĶ¾å°ĦæĢ§": 3749,
      "èĤ¯": 3750,
      "æ°Ķè±¡": 3751,
      "å¤§å¤ļæķ°": 3752,
      "æ¼ı": 3753,
      "ä¼ĺçĤ¹": 3754,
      "çļĦçī¹çĤ¹": 3755,
      "ä¸īå¹´": 3756,
      "æľīæĹ¶": 3757,
      "åĹ": 3758,
      "æµ¸": 3759,
      "ä¼¦æķ¦": 3760,
      "è¡¨çİ°ä¸º": 3761,
      "çļĦä¿¡æģ¯": 3762,
      "æĹ¦": 3763,
      "çŃīåľ°": 3764,
      "åıĳæİĺ": 3765,
      "å¾Īå¤§": 3766,
      "çº¢å¤ĸ": 3767,
      "è®¨è®º": 3768,
      "è§£æĶ¾": 3769,
      "éĺĢ": 3770,
      "å¼ķåħ¥": 3771,
      "é«ĺéĢŁ": 3772,
      "æĶ¶éĽĨ": 3773,
      "åĵįåºĶ": 3774,
      "æŀĦå»º": 3775,
      "åµ": 3776,
      "äºĳåįĹ": 3777,
      "1949": 3778,
      "31": 3779,
      "èĳ¡": 3780,
      "éĻįæ°´éĩı": 3781,
      "ĠZ": 3782,
      "è·ĥ": 3783,
      "è¿ĺåİŁ": 3784,
      "éĹ®é¢ĺçļĦ": 3785,
      "å°ºåº¦": 3786,
      "å½ĵéĢī": 3787,
      "ä¸Ĭè¿°": 3788,
      "æĬĢæľ¯çļĦ": 3789,
      "åŁºéĩĳ": 3790,
      "æĹĭè½¬": 3791,
      "æ³ķçļĦ": 3792,
      "å¸¸çĶ¨çļĦ": 3793,
      "ell": 3794,
      "çİ°åľº": 3795,
      "çŃīäºº": 3796,
      "å½ĵåľ°": 3797,
      "ystem": 3798,
      "æĥħæĦŁ": 3799,
      "æĹĹ": 3800,
      "è·Ł": 3801,
      "å¿ħè¦ģ": 3802,
      "æİ¥è¿ĳ": 3803,
      "å¼¯": 3804,
      "å¤ªå¹³": 3805,
      "ç¼ĸåĪ¶": 3806,
      "åĨ·åį´": 3807,
      "å°ıäºİ": 3808,
      "åīĸ": 3809,
      "æ±½è½¦": 3810,
      "åĮ»èį¯": 3811,
      "æİ¨å¹¿": 3812,
      "çĤŃ": 3813,
      "æĸ¯ç§ĳ": 3814,
      "ç¾İæ´²": 3815,
      "èµ´": 3816,
      "æľºåĻ¨": 3817,
      "æĮĩæĮ¥": 3818,
      "å±ı": 3819,
      "åĪ¶åĵģ": 3820,
      "æĵ¦": 3821,
      "ç¬¬äºĮæ¬¡": 3822,
      "ä¸ĸçķĮå¤§æĪĺ": 3823,
      "çķĮéĿ¢": 3824,
      "æľĢåĪĿ": 3825,
      "æľ¬è´¨": 3826,
      "å¸¸çĶ¨": 3827,
      "åħ±äº§": 3828,
      "è¥¿äºļ": 3829,
      "å®Ļ": 3830,
      "ç¤¾ä¼ļä¸»ä¹ī": 3831,
      "çŃĸçķ¥": 3832,
      "å±±è¥¿": 3833,
      "æĮĸ": 3834,
      "2006": 3835,
      "è¿Ľè¡ĮçļĦ": 3836,
      "çº½çº¦": 3837,
      "åĮºåĪ«": 3838,
      "æ¶¡": 3839,
      "æ±Ĺ": 3840,
      "èĤ¢": 3841,
      "èĢĥåı¤": 3842,
      "ç»©": 3843,
      "ä¹¾": 3844,
      "åĽ¢ä½ĵ": 3845,
      "çĽ¸åħ³çļĦ": 3846,
      "æİ¢æµĭåĻ¨": 3847,
      "å¤ļä¸º": 3848,
      "å±ĤçļĦ": 3849,
      "ç¼ĸåī§": 3850,
      "ä½©": 3851,
      "è§Ĩè§ī": 3852,
      "DNA": 3853,
      "å®ĥçļĦ": 3854,
      "åĢ¡": 3855,
      "ç»´æĮģ": 3856,
      "é¢ĩ": 3857,
      "è¿ĽèĢĮ": 3858,
      "ran": 3859,
      "2001": 3860,
      "åĻªå£°": 3861,
      "åħģ": 3862,
      "æ¯ıå¹´": 3863,
      "åĢº": 3864,
      "ä¹ĭå¤ĸ": 3865,
      "å°¿": 3866,
      "åģĩè®¾": 3867,
      "èģĶåĲĪåĽ½": 3868,
      "å¹´èµ·": 3869,
      "ç½Ĳ": 3870,
      "è¯Ħè®º": 3871,
      "æĸĩæĺİ": 3872,
      "åĩ¤": 3873,
      "éĺ²æ²»": 3874,
      "1980": 3875,
      "çŃ¹": 3876,
      "èĤĿ": 3877,
      "éĵ¶è¡Į": 3878,
      "çĬ¹": 3879,
      "33": 3880,
      "éĢŁçİĩ": 3881,
      "èĤĥ": 3882,
      "æĺ¯ä»¥": 3883,
      "ä¸Ńæľī": 3884,
      "çªĳ": 3885,
      "è§Ĵèī²": 3886,
      "å¤©çĦ¶æ°Ķ": 3887,
      "è¯ģæĺİ": 3888,
      "ä¾Ŀèµĸ": 3889,
      "ub": 3890,
      "ĠX": 3891,
      "åŃŁ": 3892,
      "æµģç¨ĭ": 3893,
      "åŁºåľ°": 3894,
      "ç®Ń": 3895,
      "çļĦæĢ»": 3896,
      "çļĦç»ĵæŀĦ": 3897,
      "ä¸ºåŁºç¡Ģ": 3898,
      "é¡µ": 3899,
      "åĴĮåħ¶ä»ĸ": 3900,
      "ä½ĵåĪ¶": 3901,
      "åĨ²çªģ": 3902,
      "2015": 3903,
      "éĶ¦": 3904,
      "ä¸įå¾Ĺ": 3905,
      "ç¬¬ä¸Ģä¸ª": 3906,
      "ç»ĨèıĮ": 3907,
      "é¥±": 3908,
      "ä¸ľè¥¿": 3909,
      "åĶĲä»£": 3910,
      "çŁĽçĽ¾": 3911,
      "2010": 3912,
      "ç»ĦåĪĨ": 3913,
      "æĸĹäºī": 3914,
      "éĥ¨ä»¶": 3915,
      "æ¯ģ": 3916,
      "çŁ³åĻ¨": 3917,
      "æĴŀ": 3918,
      "å¹´è¢«": 3919,
      "èĤ¤": 3920,
      "left": 3921,
      "ä¸»æĮģ": 3922,
      "åį±å®³": 3923,
      "è¶ĭåĬ¿": 3924,
      "cdot": 3925,
      "æ³ķåŃ¦": 3926,
      "éħ¸çĽĲ": 3927,
      "éĥĳ": 3928,
      "ç§įåŃĲ": 3929,
      "æ¬²": 3930,
      "æľĿé²ľ": 3931,
      "å¼ºçĥĪ": 3932,
      "æĹ¶æľŁçļĦ": 3933,
      "èĬ¯": 3934,
      "æ¹ĸåįĹ": 3935,
      "åĪĨè¾¨": 3936,
      "åĲ¸éĻĦ": 3937,
      "è¿°äºĨ": 3938,
      "åħ·å¤ĩ": 3939,
      "ĠO": 3940,
      "çĶµæ±ł": 3941,
      "ä»ĵ": 3942,
      "ä¿ĿæĬ¤åĮº": 3943,
      "æľīäºĽ": 3944,
      "ä»ĸåľ¨": 3945,
      "èĬ³": 3946,
      "çĸĳ": 3947,
      "çªģåĩº": 3948,
      "æĿĥåĬĽ": 3949,
      "éĩĩéĽĨ": 3950,
      "è¸ª": 3951,
      "ex": 3952,
      "æ³ķè§Ħ": 3953,
      "æ³Ħ": 3954,
      "è¾ĥä½İ": 3955,
      "%ï½ŀ": 3956,
      "è®¾æľī": 3957,
      "çļĦå·¥ä½ľ": 3958,
      "æķ£å°Ħ": 3959,
      "åħ¬å¸ĥ": 3960,
      "å±ħä½ı": 3961,
      "éĻķè¥¿": 3962,
      "2016": 3963,
      "åīĳ": 3964,
      "æĸ¯åŁº": 3965,
      "æ¡Ĩæŀ¶": 3966,
      "åİŁåĲį": 3967,
      "æī¿æĭħ": 3968,
      "åĪĨæĶ¯": 3969,
      "åı¤åħ¸": 3970,
      "ä¸īè§Ĵ": 3971,
      "çļĦæ¦Ĥå¿µ": 3972,
      "éĩĬæĶ¾": 3973,
      "æŀĹä¸ļ": 3974,
      "1979": 3975,
      "æĴĳ": 3976,
      "æķĪçĽĬ": 3977,
      "éļ¾ä»¥": 3978,
      "å³¡": 3979,
      "èĲĦ": 3980,
      "èĨ¨": 3981,
      "ç¾½": 3982,
      "åī§åĽ¢": 3983,
      "è¿Ŀ": 3984,
      "è¤Ĳ": 3985,
      "èĳ¡èĲĦ": 3986,
      "åĬĽéĩı": 3987,
      "é¸¡": 3988,
      "uct": 3989,
      "èĻİ": 3990,
      "èĬ¬": 3991,
      "æľĢä¸º": 3992,
      "åŁ¹è®Ń": 3993,
      "çİĦ": 3994,
      "ç¬¬åĽĽ": 3995,
      "åĩºåı£": 3996,
      "åıĳè¾¾": 3997,
      "éļıåĲİ": 3998,
      "ç²®": 3999,
      "åį±éĻ©": 4000,
      "ĊĊĊ": 4001,
      "ç»ĦæĪĲéĥ¨åĪĨ": 4002,
      "ä¸»ä¹īçļĦ": 4003,
      "ç»¿èī²": 4004,
      "48": 4005,
      "åĽŃæŀĹ": 4006,
      "ä¿ĿçķĻ": 4007,
      "çī©ä½ĵ": 4008,
      "eng": 4009,
      "éī´å®ļ": 4010,
      "åĪĽç«ĭ": 4011,
      "å¿ł": 4012,
      "éĴĻ": 4013,
      "ens": 4014,
      "å»ºç«ĭäºĨ": 4015,
      "çļĦæĹ¶éĹ´": 4016,
      "çļĦéĹ®é¢ĺ": 4017,
      "ers": 4018,
      "é¢ľèī²": 4019,
      "åŁºçĿ£": 4020,
      "æ··åĩĿ": 4021,
      "å®ĩå®Ļ": 4022,
      "èĢĮæĪĲ": 4023,
      "1958": 4024,
      "ä¸Ńéĥ¨": 4025,
      "æī¹åĩĨ": 4026,
      "äººæīį": 4027,
      "åºĶè¯¥": 4028,
      "èįĴ": 4029,
      "part": 4030,
      "è·³": 4031,
      "æł½": 4032,
      "çļĦä½ľåĵģ": 4033,
      "å¹¿åĳĬ": 4034,
      "èĩªæ²»åĮº": 4035,
      "ä¸ĸçºªåĪĿ": 4036,
      "ational": 4037,
      "å°ĺ": 4038,
      "ç»§æī¿": 4039,
      "æķ°åĢ¼": 4040,
      "åħ¬å¼ı": 4041,
      "å¯¿åĳ½": 4042,
      "åįĥåħĭ": 4043,
      "çļĦçĽ®çļĦ": 4044,
      "èº«ä»½": 4045,
      "åĩłä¹İ": 4046,
      "âĳ¥": 4047,
      "æ¿Ģåıĳ": 4048,
      "500": 4049,
      "âĦĥï¼Į": 4050,
      "é©¬åħĭæĢĿ": 4051,
      "2011": 4052,
      "ç¨»": 4053,
      "è¿ĺæĺ¯": 4054,
      "èĭ¥å¹²": 4055,
      "æĪĲå°±": 4056,
      "åĩ¯": 4057,
      "æĿ¥è¯´": 4058,
      "èģļåĲĪ": 4059,
      "æł·æľ¬": 4060,
      "å¥ł": 4061,
      "2013": 4062,
      "çĦĬ": 4063,
      "åĲİèĢħ": 4064,
      "ib": 4065,
      "ç»ĺçĶ»": 4066,
      "çĨĻ": 4067,
      "äºŃ": 4068,
      "èī¯å¥½çļĦ": 4069,
      "åŃ¤": 4070,
      "å²Ĺ": 4071,
      "ç§Ł": 4072,
      "åĨ»": 4073,
      "ç¼ºéĻ·": 4074,
      "åĲĦåľ°": 4075,
      "æį·": 4076,
      "æĪ´": 4077,
      "æ··åĩĿåľŁ": 4078,
      "è¾Ĩ": 4079,
      "åħĨ": 4080,
      "2008": 4081,
      "è¯¾ç¨ĭ": 4082,
      "å¹´åĩºçīĪ": 4083,
      "1985": 4084,
      "åī§æľ¬": 4085,
      "æŁĵèī²": 4086,
      "åľ°è´¨åŃ¦": 4087,
      "æ£Ģç´¢": 4088,
      "æ³¢éķ¿": 4089,
      "é¢Ħéĺ²": 4090,
      "1978": 4091,
      "ä¸ºä¸Ģ": 4092,
      "ä¸¤ä¾§": 4093,
      "å¹´é¾Ħ": 4094,
      "å¸¸è§ģçļĦ": 4095,
      "åįĸ": 4096,
      "åľ°åĽ¾": 4097,
      "æķıæĦŁ": 4098,
      "çłĸ": 4099,
      "èĥĥ": 4100,
      "è¯ĹéĽĨ": 4101,
      "é±¼ç±»": 4102,
      "1996": 4103,
      "æ±īè¯Ń": 4104,
      "300": 4105,
      "å¹²çĩ¥": 4106,
      "æľįè£ħ": 4107,
      "å±ŀæĢ§": 4108,
      "è¯Ńä¹ī": 4109,
      "çļĦåīį": 4110,
      "æĪĲç«ĭæĹ¶éĹ´": 4111,
      "1982": 4112,
      "åįıè®®": 4113,
      "å¼§": 4114,
      "å·¥äºº": 4115,
      "èĬĤçĽ®": 4116,
      "partial": 4117,
      "av": 4118,
      "å¼ºçļĦ": 4119,
      "æľīåĪ©äºİ": 4120,
      "æµģåŁŁ": 4121,
      "ä¼ļåĳĺ": 4122,
      "æĬ¥éģĵ": 4123,
      "ä½¿åħ¶": 4124,
      "æ»ŀ": 4125,
      "å§ĵ": 4126,
      "ä»ĭç»į": 4127,
      "2005": 4128,
      "åıįæĺłäºĨ": 4129,
      "è¡Ģç®¡": 4130,
      "çĶŁåŃĺ": 4131,
      "åĮĸçŁ³": 4132,
      "å¯¼å¼¹": 4133,
      "æĬķåħ¥": 4134,
      "å¦»": 4135,
      "æĭĽ": 4136,
      "æ¼ł": 4137,
      "åıªèĥ½": 4138,
      "æļĸ": 4139,
      "æķĮ": 4140,
      "ãĢĶ": 4141,
      "ãĢķ": 4142,
      "1956": 4143,
      "37": 4144,
      "è¾¹ç¼ĺ": 4145,
      "ç¿°": 4146,
      "ä¿®å¤į": 4147,
      "éĺ²æĬ¤": 4148,
      "32": 4149,
      "æıĲåıĸ": 4150,
      "å¤©æĸĩ": 4151,
      "åıĺæį¢": 4152,
      "å®¶æĹı": 4153,
      "æĸ¹ä¾¿": 4154,
      "æĶ¹è¿Ľ": 4155,
      "åºĶæĢ¥": 4156,
      "å»ºæĪĲ": 4157,
      "ç½ļ": 4158,
      "çĻ½èī²": 4159,
      "èĵĦ": 4160,
      "è¾ĥå°ı": 4161,
      "Î±": 4162,
      "ä»²": 4163,
      "2002": 4164,
      "æ²Ī": 4165,
      "åħ¬ä¼Ĺ": 4166,
      "æĮĤ": 4167,
      "ç§įæ¤į": 4168,
      "2014": 4169,
      "æ´»åĬ¨çļĦ": 4170,
      "å¹³åİŁ": 4171,
      "åľ°å½¢": 4172,
      "äº§éĩı": 4173,
      "è¿İ": 4174,
      "åŃ¦çļĦ": 4175,
      "1984": 4176,
      "ç¦ıå»º": 4177,
      "å¸ĥå±Ģ": 4178,
      "å¥³æĢ§": 4179,
      "çŃīå¥ĸ": 4180,
      "1986": 4181,
      "é¢ģå¸ĥ": 4182,
      "ory": 4183,
      "åĽ½å®¶çļĦ": 4184,
      "2017": 4185,
      "åľºæīĢ": 4186,
      "åıĳæĺİ": 4187,
      "å¹¿ä¹ī": 4188,
      "1999": 4189,
      "çĮª": 4190,
      "34": 4191,
      "æŃ£ç¡®": 4192,
      "ä¼Ĳ": 4193,
      "çİĭæľĿ": 4194,
      "èĮİ": 4195,
      "Ġ{\\": 4196,
      "éĩİçĶŁ": 4197,
      "é¢ĺæĿĲ": 4198,
      "åįĬå¯¼ä½ĵ": 4199,
      "éĵº": 4200,
      "åĻ¨å®ĺ": 4201,
      "èĬ½": 4202,
      "1988": 4203,
      "ç§ĳçłĶ": 4204,
      "2012": 4205,
      "2004": 4206,
      "æĽ´ä¸º": 4207,
      "æīĢéľĢ": 4208,
      "åıĬæĹ¶": 4209,
      "2009": 4210,
      "2003": 4211,
      "æłĩè®°": 4212,
      "å¤ļå¹´": 4213,
      "éħįç½®": 4214,
      "å·¡": 4215,
      "èģļåĲĪçī©": 4216,
      "æ±¤": 4217,
      "éĤ®": 4218,
      "ĠIn": 4219,
      "åĢ¾åĲĳ": 4220,
      "çĶ»å®¶": 4221,
      "æĹ¥å¸¸": 4222,
      "æ·»": 4223,
      "æłı": 4224,
      "èµĦéĩĳ": 4225,
      "éĴł": 4226,
      "æ¹ĸåĮĹ": 4227,
      "38": 4228,
      "èĪĴ": 4229,
      "ç¹ģæ®ĸ": 4230,
      "ä¸īç»´": 4231,
      "pt": 4232,
      "éĺ¿æĭīä¼¯": 4233,
      "elta": 4234,
      "åŁºç¡Ģä¸Ĭ": 4235,
      "orm": 4236,
      "ä¸ľéĥ¨": 4237,
      "çİ¯èĬĤ": 4238,
      "å¯¹å¤ĸ": 4239,
      "ä¸ŃåĽ½çļĦ": 4240,
      "æľīä¸Ģ": 4241,
      "ç»ıå¸¸": 4242,
      "çº¦æĿŁ": 4243,
      "æĸĩæľ¬": 4244,
      "æı´": 4245,
      "åĬłä»¥": 4246,
      "ay": 4247,
      "äº§çĶŁäºĨ": 4248,
      "ä¿¡æģ¯çļĦ": 4249,
      "å°¤åħ¶æĺ¯": 4250,
      "åīįåĲİ": 4251,
      "åľŁæľ¨": 4252,
      "éħ°": 4253,
      "åĳ¼åĲ¸": 4254,
      "æ³Į": 4255,
      "åıĳçĶŁçļĦ": 4256,
      "æ°´çļĦ": 4257,
      "é«ĺåİĭ": 4258,
      "1992": 4259,
      "å¦Ĥä¸ĭ": 4260,
      "75": 4261,
      "ä¸Ģå¹´": 4262,
      "æ³ķåĴĮ": 4263,
      "æľªæĿ¥": 4264,
      "åħ¬åħĥåīį": 4265,
      "è¯»èĢħ": 4266,
      "å®ļéĩı": 4267,
      "Ġsystem": 4268,
      "å¯¼èĪª": 4269,
      "æĿ¥è¶Ĭ": 4270,
      "æ¼ĶåĮĸ": 4271,
      "å¥ĳ": 4272,
      "CO": 4273,
      "åĽ°éļ¾": 4274,
      "æľºçļĦ": 4275,
      "ä¾¯": 4276,
      "è£ħå¤ĩ": 4277,
      "è¶ĬæĿ¥è¶Ĭ": 4278,
      "èĥļ": 4279,
      "ä¸Ģæł·": 4280,
      "çķ´": 4281,
      "æ¤įè¢«": 4282,
      "æª": 4283,
      "è¿½æ±Ĥ": 4284,
      "æ¯ĶèµĽ": 4285,
      "åĽ½çİĭ": 4286,
      "çĶµåĬĽ": 4287,
      "ÂłÂł": 4288,
      "äººæ°ĳæĶ¿åºľ": 4289,
      "ass": 4290,
      "è°ĭ": 4291,
      "æĶ¶èĹı": 4292,
      "ç»Ħç»ĩçļĦ": 4293,
      "Ġcom": 4294,
      "é«ĺåĪĨåŃĲ": 4295,
      "åĥ§": 4296,
      "æĶ¯æĴĳ": 4297,
      "å¼¥": 4298,
      "è¾ĥå¤§çļĦ": 4299,
      "å·¥ä½ľçļĦ": 4300,
      "åħ³ç³»çļĦ": 4301,
      "1990": 4302,
      "èĢ¦": 4303,
      "ä½İæ¸©": 4304,
      "ç¡ķ": 4305,
      "çļ®èĤ¤": 4306,
      "1994": 4307,
      "èĭ±è¯Ń": 4308,
      "åĨĽéĺŁ": 4309,
      "åĨ²åĩ»": 4310,
      "æĸĭ": 4311,
      "åĬłéĢŁ": 4312,
      "å°ıæĹ¶": 4313,
      "ç²¾ç¡®": 4314,
      "çĩķ": 4315,
      "å¾®ç±³": 4316,
      "2007": 4317,
      "çİ¯å¢ĥç§ĳåŃ¦": 4318,
      "æİĴæĶ¾": 4319,
      "æıŃç¤º": 4320,
      "1995": 4321,
      "äºĭå®ŀ": 4322,
      "çªĹ": 4323,
      "ä¿ĦåĽ½": 4324,
      "æĥł": 4325,
      "ä¹Ķ": 4326,
      "yn": 4327,
      "éĩįå¤į": 4328,
      "çĹĩçĬ¶": 4329,
      "åĩºçİ°äºĨ": 4330,
      "lect": 4331,
      "æ·Ģ": 4332,
      "çļĦèīºæľ¯": 4333,
      "åĽ½å®¶çº§": 4334,
      "çĲĨå¿µ": 4335,
      "ä¹īåĬ¡": 4336,
      "äºļæ´²": 4337,
      "æľīæīĢ": 4338,
      "é¢Ī": 4339,
      "æŁ³": 4340,
      "æµ·å²¸": 4341,
      "å¸¦æľī": 4342,
      "äºĭåĬ¡": 4343,
      "1998": 4344,
      "1957": 4345,
      "è¿ĩæ¸¡": 4346,
      "å½±åĥı": 4347,
      "ä¾ĽåºĶ": 4348,
      "ä¼¦çĲĨ": 4349,
      "èº«ä½ĵ": 4350,
      "èĪ¶": 4351,
      "èį¡": 4352,
      "éĽĨä½ĵ": 4353,
      "1000": 4354,
      "åĶ¯ä¸Ģ": 4355,
      "éĶģ": 4356,
      "çĶµéĺ»": 4357,
      "ult": 4358,
      "åĪ¸": 4359,
      "çĪ¶äº²": 4360,
      "åĪĽåĪĬ": 4361,
      "åĩłä¸ª": 4362,
      "ä¸Ĭä¸ĭ": 4363,
      "æ»´": 4364,
      "âĪ": 4365,
      "æīĭæ³ķ": 4366,
      "æĳĨ": 4367,
      "çŃĽ": 4368,
      "åĿĳ": 4369,
      "ĠChin": 4370,
      "æ³ķéĻ¢": 4371,
      "1993": 4372,
      "ç¤¾ä¼ļçļĦ": 4373,
      "åı¯çĶ¨": 4374,
      "ry": 4375,
      "åģļåĩº": 4376,
      "ĠSh": 4377,
      "å½»": 4378,
      "åŁİéķĩ": 4379,
      "1997": 4380,
      "èħĲèļĢ": 4381,
      "èĥĨ": 4382,
      "æ¼Ķåıĺ": 4383,
      "1960": 4384,
      "ç»Ŀå¯¹": 4385,
      "åĪĨå¸ĥåľ¨": 4386,
      "1983": 4387,
      "å®¿": 4388,
      "æĥħèĬĤ": 4389,
      "èĢĥå¯Ł": 4390,
      "åħĥå¹´": 4391,
      "æī¹åĪ¤": 4392,
      "çļĩå¸Ŀ": 4393,
      "1959": 4394,
      "å¡ĺ": 4395,
      "ä¸ĸçķĮä¸Ĭ": 4396,
      "å½Ĵå±ŀ": 4397,
      "çº¿çļĦ": 4398,
      "ä¸ŃæľŁ": 4399,
      ",\\": 4400,
      "éĢĤå½ĵ": 4401,
      "çļĦåĨħå®¹": 4402,
      "éĢĤåĲĪ": 4403,
      "ric": 4404,
      "1987": 4405,
      "éĵħ": 4406,
      "ä¼į": 4407,
      "æ·ĭ": 4408,
      "è½¦è¾Ĩ": 4409,
      "åĩºæĿ¥": 4410,
      "åı¬å¼Ģ": 4411,
      "è¿Ļç±»": 4412,
      "1981": 4413,
      "çĪĨçĤ¸": 4414,
      "å¤§éĩıçļĦ": 4415,
      "ary": 4416,
      "çłĶç©¶éĻ¢": 4417,
      "å¹³è¡Į": 4418,
      "åĮĸåĴĮ": 4419,
      "å±ķå¼Ģ": 4420,
      "çĽ¸ç»ĵåĲĪ": 4421,
      "è¿ĩç¨ĭçļĦ": 4422,
      "éħµ": 4423,
      "ä¿¡ä»°": 4424,
      "å¹´åĲİ": 4425,
      "åĨ¶éĩĳ": 4426,
      "éĢĥ": 4427,
      "åħ±äº§åħļ": 4428,
      "ç¼ºä¹ı": 4429,
      "åĲĪåĲĮ": 4430,
      "å®ĭä»£": 4431,
      "åŁİä¹¡": 4432,
      "æĹģ": 4433,
      "è¾©": 4434,
      "å·ŀå¸Ĥ": 4435,
      "ä½ĵåĨħ": 4436,
      "å®¹éĩı": 4437,
      "åĪĨæķ£": 4438,
      "è¿ĲåĬ¨çļĦ": 4439,
      "ä¸»æ¼Ķ": 4440,
      "ç³»ç»Łä¸Ń": 4441,
      "çĶµæ°Ķ": 4442,
      "è¯įåħ¸": 4443,
      "ç¼ĸçłģ": 4444,
      "äº¤äºĴ": 4445,
      "å¸¸æķ°": 4446,
      "åħĪè¿Ľ": 4447,
      "éķ¿æ±Ł": 4448,
      "è´¢æĶ¿": 4449,
      "äº§åĵģçļĦ": 4450,
      "æĽ¹": 4451,
      "æ·®": 4452,
      "åĴĮåıĳå±ķ": 4453,
      "æº¶è§£": 4454,
      "éĶĢåĶ®": 4455,
      "Ġ193": 4456,
      "æĶ¹éĢł": 4457,
      "é¢ĨåŁŁçļĦ": 4458,
      "å¢ŀå¤§": 4459,
      "å¹´å¼Ģå§ĭ": 4460,
      "åıĺåĮĸçļĦ": 4461,
      "é¦Ī": 4462,
      "è´Ŀå°Ķ": 4463,
      "Ġ1": 4464,
      "åŁĭ": 4465,
      "å°ıåŀĭ": 4466,
      "é«ĺåİŁ": 4467,
      "çº·": 4468,
      "æĦıè§ģ": 4469,
      "ard": 4470,
      "1991": 4471,
      "èµĦæºĲçļĦ": 4472,
      "äºĮå¹´": 4473,
      "æĽ°": 4474,
      "éĶ¥": 4475,
      "è§Ĩä¸º": 4476,
      "å¤º": 4477,
      "æ±Łè¥¿": 4478,
      "åħģè®¸": 4479,
      "è§Ħå®ļçļĦ": 4480,
      "çĥĥ": 4481,
      "åħ¬çº¦": 4482,
      "æĸĩçī©ä¿ĿæĬ¤": 4483,
      "çľŁç©º": 4484,
      "æĦĪ": 4485,
      "çİ¯å¢ĥçļĦ": 4486,
      "èĢĮä¸į": 4487,
      "æ¯ķä¸ļäºİ": 4488,
      "éĻ¢æł¡": 4489,
      "èĪ¹èĪ¶": 4490,
      "æ¸ĹéĢı": 4491,
      "æĪªèĩ³": 4492,
      "å®īå¾½": 4493,
      "çĶ¨éĢĶ": 4494,
      "å¼ıçļĦ": 4495,
      "ä¸»åĬ¨": 4496,
      "åİļåº¦": 4497,
      "è´¹çĶ¨": 4498,
      "ev": 4499,
      "å»ºéĢł": 4500,
      "æİĮæı¡": 4501,
      "åľ°è´¨å·¥ç¨ĭ": 4502,
      "å±Ī": 4503,
      "èİ²": 4504,
      "èįīåľ°": 4505,
      "å¢ĥåĨħ": 4506,
      "age": 4507,
      "å¯¹åħ¶": 4508,
      "åľ°è¡¨": 4509,
      "è¾ĥé«ĺçļĦ": 4510,
      "å®ıè§Ĥ": 4511,
      "åŃĺåľ¨çļĦ": 4512,
      "è¿ĳä¼¼": 4513,
      "çĽ´åĪ°": 4514,
      "åħ¸åŀĭçļĦ": 4515,
      "åı¯æĮģç»Ń": 4516,
      "åĪ¶æĪĲ": 4517,
      "æħ§": 4518,
      "çĶµèį·": 4519,
      "uc": 4520,
      "æıĲåĩºçļĦ": 4521,
      "åıĸä»£": 4522,
      "äº¤åıī": 4523,
      "é¥±åĴĮ": 4524,
      "ä¸¤ç±»": 4525,
      "çŃīç¦»åŃĲ": 4526,
      "ä¸»è¦ģçĶ¨äºİ": 4527,
      "Ġåľ°è´¨åŃ¦": 4528,
      "æ¡Ĥ": 4529,
      "ater": 4530,
      "æİ¢è®¨": 4531,
      "æĿ¡çº¦": 4532,
      "åľ°è´¨èµĦæºĲä¸İ": 4533,
      "é¬": 4534,
      "èİ«æĸ¯ç§ĳ": 4535,
      "ä¼Ĺå¤ļ": 4536,
      "å¤§å¤ļ": 4537,
      "ä¸»æķĻ": 4538,
      "åįļå£«åŃ¦ä½į": 4539,
      "åľ°è´¨èµĦæºĲä¸İåľ°è´¨å·¥ç¨ĭ": 4540,
      "ä¹¦ä¸Ń": 4541,
      "éĿŀçº¿æĢ§": 4542,
      "åĨĻä½ľ": 4543,
      "ä¸²": 4544,
      "æī«æıı": 4545,
      "ĠV": 4546,
      "çīµ": 4547,
      "1989": 4548,
      "ç§įç¾¤": 4549,
      "ç«ĭæĸ¹": 4550,
      "åħĭæĸ¯": 4551,
      "çº¢èī²": 4552,
      "åī§çĽ®": 4553,
      "æļĤ": 4554,
      "éĽ·è¾¾": 4555,
      "éĻĢ": 4556,
      "ä¸īç§į": 4557,
      "æ»©": 4558,
      "Xå°Ħçº¿": 4559,
      "1950": 4560,
      "äº¿åħĥ": 4561,
      "æĸ°çĸĨ": 4562,
      "éĹª": 4563,
      "ï¼Ł": 4564,
      "å»ºè®®": 4565,
      "èĢ¦åĲĪ": 4566,
      "æ»¨": 4567,
      "çĵľ": 4568,
      "æīĢå¤Ħ": 4569,
      "åı¶çīĩ": 4570,
      "ä¸ŃåĽ½åı¤ä»£": 4571,
      "Ġx": 4572,
      "ud": 4573,
      "çļĦä¸Ń": 4574,
      "è´¢äº§": 4575,
      "èģĶç½ĳ": 4576,
      "ä¸»è¦ģçĶ±": 4577,
      "åĿļæĮģ": 4578,
      "åŁĥåıĬ": 4579,
      "Ġ19": 4580,
      "éĢłåŀĭ": 4581,
      "è®¯": 4582,
      "çİ°åŃĺ": 4583,
      "åħ³èģĶ": 4584,
      "åĪĿæľŁ": 4585,
      "å®¤åĨħ": 4586,
      "æĪĳä»¬": 4587,
      "åĴ¨": 4588,
      "éħįåĲĪ": 4589,
      "æīĢè°ĵ": 4590,
      "çªĦ": 4591,
      "äººä¸º": 4592,
      "æĶ¹ä¸º": 4593,
      "åĽĽå¹´": 4594,
      "åľ¨ä¸Ģèµ·": 4595,
      "ate": 4596,
      "æĶ¶å½ķ": 4597,
      "èį§": 4598,
      "åħĦ": 4599,
      "æŀª": 4600,
      "âĨ": 4601,
      "åĪĨåĪ«ä¸º": 4602,
      "éĥŃ": 4603,
      "è¾ĥå¤ļ": 4604,
      "44": 4605,
      "è°ĥæİ§": 4606,
      "ï¼Į$": 4607,
      "ä¸ºä¸»è¦ģ": 4608,
      "è¾ĵéĢģ": 4609,
      "åĦĴ": 4610,
      "1948": 4611,
      "âĢ²": 4612,
      "1961": 4613,
      "å¤ĸåĽ½": 4614,
      "çĶŁæ´»çļĦ": 4615,
      "æ¶ĪéĻ¤": 4616,
      "æ¤Ń": 4617,
      "Ġsp": 4618,
      "å¤©æ´¥": 4619,
      "up": 4620,
      "ä¸ĢåĪĩ": 4621,
      "æĴĴ": 4622,
      "èĨ¨èĥĢ": 4623,
      "åĲĮæł·": 4624,
      "ä¹ĭä¸Ń": 4625,
      "è¡¥åħħ": 4626,
      "éĥģ": 4627,
      "ill": 4628,
      "æĺĤ": 4629,
      "1945": 4630,
      "èĤ¿çĺ¤": 4631,
      "åŃ¢åŃĲ": 4632,
      "åľŁæľ¨å·¥ç¨ĭ": 4633,
      "éķ¿çļĦ": 4634,
      "æ³¨éĩį": 4635,
      "æ¹¿åľ°": 4636,
      "æ°¨åŁº": 4637,
      "èĪĮ": 4638,
      "1946": 4639,
      "éģĤ": 4640,
      "act": 4641,
      "çļĦåħī": 4642,
      "äºĮæ°§åĮĸ": 4643,
      "ä¼ª": 4644,
      "å¤©æĸĩåŃ¦": 4645,
      "è®¼": 4646,
      "åĲķ": 4647,
      "éĽ¾": 4648,
      "æº¶åīĤ": 4649,
      "åħ¬æ°ĳ": 4650,
      "å»Ĭ": 4651,
      "çĽĨåľ°": 4652,
      "ç¡®ä¿Ŀ": 4653,
      "ç»³": 4654,
      "çļĦä¸į": 4655,
      "amb": 4656,
      "åľ°ä¸ĭæ°´": 4657,
      "æĦŁè§ī": 4658,
      "çī¹å®ļçļĦ": 4659,
      "ç¾¤ä¼Ĺ": 4660,
      "éĻ¢å£«": 4661,
      "çļĦè¡Įä¸º": 4662,
      "æĢ»åĢ¼": 4663,
      "å¿½": 4664,
      "1962": 4665,
      "ç¨³å®ļçļĦ": 4666,
      "è´µæĹı": 4667,
      "æĮĳ": 4668,
      "æĳ©æĵ¦": 4669,
      "65": 4670,
      "åĴĮå¹³": 4671,
      "1964": 4672,
      "theta": 4673,
      "çļĦè¦ģæ±Ĥ": 4674,
      "åĢŁåĬ©": 4675,
      "ea": 4676,
      "æºī": 4677,
      "èĮĥçķ´": 4678,
      "æķĻåłĤ": 4679,
      "IS": 4680,
      "ä¸İåħ¶ä»ĸ": 4681,
      "æķħéļľ": 4682,
      "åĩĨå¤ĩ": 4683,
      "èĥģ": 4684,
      "ä¸ŃåĽ½ç§ĳåŃ¦éĻ¢": 4685,
      "è®®ä¼ļ": 4686,
      "æķ´åĲĪ": 4687,
      "é«ĺæķĪ": 4688,
      "è®¤ä¸ºæĺ¯": 4689,
      "çļĦåĨħ": 4690,
      "ç§©": 4691,
      "äºĶå¹´": 4692,
      "å½±è§Ĩ": 4693,
      "ä½İäºİ": 4694,
      "çĹķ": 4695,
      "éĢļè¿ĩå¯¹": 4696,
      "è½§": 4697,
      "all": 4698,
      "åľ¨ä¸Ģå®ļ": 4699,
      "éļĭ": 4700,
      "å»ºäºİ": 4701,
      "å¸¦æĿ¥": 4702,
      "åĪ°çļĦ": 4703,
      "éļ§": 4704,
      "å¤ļæł·æĢ§": 4705,
      "æŃ¤æĹ¶": 4706,
      "è¯Ńæ³ķ": 4707,
      "é£Łçī©": 4708,
      "èį§åħī": 4709,
      "è´§å¸ģ": 4710,
      "åĨįæ¬¡": 4711,
      "ÂłĠ": 4712,
      "è½½ä½ĵ": 4713,
      "é¡ºåºı": 4714,
      "æİ§åĪ¶ç³»ç»Ł": 4715,
      "çļĦçĶŁæ´»": 4716,
      "ä¿®è®¢": 4717,
      "Î²": 4718,
      "çģĮæºī": 4719,
      "åŃ¦æ´¾": 4720,
      "åľ¨åħ¶": 4721,
      "éľī": 4722,
      "çĶŁäº§æĢ»åĢ¼": 4723,
      "1963": 4724,
      "å®ħ": 4725,
      "çĶŁçļĦ": 4726,
      "Ġä¸Ń": 4727,
      "ç¬¬ä¸Ģéĥ¨": 4728,
      "è¿ģç§»": 4729,
      "æµģä¼ł": 4730,
      "æĿĥçļĦ": 4731,
      "çªŁ": 4732,
      "cdots": 4733,
      "our": 4734,
      "int": 4735,
      "è®°å¿Ĩ": 4736,
      "{{": 4737,
      "åĪĨæ³Į": 4738,
      "æĬĦ": 4739,
      "è¯ŀ": 4740,
      "å¼ķåıĳ": 4741,
      "ech": 4742,
      "æº¯": 4743,
      "æŃ¦åĻ¨": 4744,
      "æľ´": 4745,
      "1952": 4746,
      "ology": 4747,
      "èĳ£": 4748,
      "1955": 4749,
      "å§¿": 4750,
      "çŃīäºİ": 4751,
      "end": 4752,
      "å¦ĩå¥³": 4753,
      "95": 4754,
      "è¢Ń": 4755,
      "ç¬¬äºĮæ¬¡ä¸ĸçķĮå¤§æĪĺ": 4756,
      "å¹³åĿĩæ°Ķæ¸©": 4757,
      "å¤įæĿĤçļĦ": 4758,
      "åĨ³äºİ": 4759,
      "âĨĴ": 4760,
      "æĿŃ": 4761,
      "ä¸»ç®¡": 4762,
      "å¾Ĺä»¥": 4763,
      "åĩºåıĳ": 4764,
      "ä¹¾éļĨ": 4765,
      "åĮºåĪĨ": 4766,
      "åıĸåĨ³äºİ": 4767,
      "å¹»": 4768,
      "ä½Ĩåľ¨": 4769,
      "ä¼Ĭæĸ¯": 4770,
      "çŁ©éĺµ": 4771,
      "èĳĹæľī": 4772,
      "éħ®": 4773,
      "ç»ĩçī©": 4774,
      "åıĮæĸ¹": 4775,
      "å¹¸": 4776,
      "çĽ®å½ķ": 4777,
      "è§ģäºİ": 4778,
      "ä¸ŃåŃĲ": 4779,
      "åı¯è¾¾": 4780,
      "åŃ©": 4781,
      "çĶµåľº": 4782,
      "è´®": 4783,
      "åĽ½çļĦ": 4784,
      "äººåĴĮ": 4785,
      "é«ĵ": 4786,
      "æ±¡æŁĵçī©": 4787,
      "éĹ´æİ¥": 4788,
      "è¾ī": 4789,
      "å¤ĸçļĦ": 4790,
      "èģĺ": 4791,
      "åªĴä»ĭ": 4792,
      "çĪµ": 4793,
      "Ġ+": 4794,
      "åħ±æľī": 4795,
      "åŃĿ": 4796,
      "è±¡å¾ģ": 4797,
      "ence": 4798,
      "Ġç¾İåĽ½": 4799,
      "1947": 4800,
      "çĪĨåıĳ": 4801,
      "é¥²æĸĻ": 4802,
      "1954": 4803,
      "ĠQ": 4804,
      "æĹłçº¿": 4805,
      "éĢĤçĶ¨": 4806,
      "å¸ĥç½®": 4807,
      "åı«": 4808,
      "æĭīæĸ¯": 4809,
      "ä½ľçĶ¨ä¸ĭ": 4810,
      "åĪ¶çļĦ": 4811,
      "å»ī": 4812,
      "åīįèĢħ": 4813,
      "æłĸ": 4814,
      "éĽĨåĲĪ": 4815,
      "åĩ¸": 4816,
      "Î³": 4817,
      "åĿĩæľī": 4818,
      "ge": 4819,
      "æĭ±": 4820,
      "âĢĻ": 4821,
      "ä¸įåıĺ": 4822,
      "åįķä¸Ģ": 4823,
      "åı¯ä»¥éĢļè¿ĩ": 4824,
      "åĸĢ": 4825,
      "åıĻäºĭ": 4826,
      "46": 4827,
      "æ¶ĪèĢĹ": 4828,
      "æĻļæľŁ": 4829,
      "åħĥä»¶": 4830,
      "åĬŀåħ¬": 4831,
      "çĦ¶èĢĮ": 4832,
      "è¯¥ä¹¦": 4833,
      "æĸ¹è¨Ģ": 4834,
      "æīĩ": 4835,
      "æł½åŁ¹": 4836,
      "è¯īè®¼": 4837,
      "åĲĮä½į": 4838,
      "å°ĳå¹´": 4839,
      "}{\\": 4840,
      "çļĦå¤ļ": 4841,
      "å®ªæ³ķ": 4842,
      "ä¸§": 4843,
      "åĴ¨è¯¢": 4844,
      "äººå±ħ": 4845,
      "ä¸įå°ĳ": 4846,
      "ĠSt": 4847,
      "åĲĲ": 4848,
      "æµ·æ°´": 4849,
      "çļĦæľī": 4850,
      "ç¾¤èĲ½": 4851,
      "å®ļäºĨ": 4852,
      "ä¸įåĨį": 4853,
      "å·²æľī": 4854,
      "åĿĬ": 4855,
      "çºĤ": 4856,
      "åĲĪå¹¶": 4857,
      "åĲ¹": 4858,
      "Ġ(": 4859,
      "æ°Ł": 4860,
      "39": 4861,
      "è´¤": 4862,
      "æĢĿç»´": 4863,
      "çľŁæŃ£": 4864,
      "åµĮ": 4865,
      "æĶ¹ç¼ĸ": 4866,
      "çĮİ": 4867,
      "éĢłæĪĲçļĦ": 4868,
      "±ä¹Ĳ": 4869,
      "æĿ¡ä¾ĭ": 4870,
      "1965": 4871,
      "å¦Ļ": 4872,
      "çļĦçĥŃ": 4873,
      "æľīçĿĢ": 4874,
      "èĩĤ": 4875,
      "ä¸Ģçº§": 4876,
      "ust": 4877,
      "ä½ľæĽ²": 4878,
      "ys": 4879,
      "ä¸Ĭåįĩ": 4880,
      "å¹¿è¥¿": 4881,
      "éĢĬ": 4882,
      "1953": 4883,
      "æ°´åºĵ": 4884,
      "çĶµç«Ļ": 4885,
      "å£°éŁ³": 4886,
      "åıĳåħī": 4887,
      "å»¶ä¼¸": 4888,
      "da": 4889,
      "æĸŃè£Ĥ": 4890,
      "æŁ¯": 4891,
      "éĽĮ": 4892,
      "éĢīä¸¾": 4893,
      "ç§ĳåŃ¦å®¶": 4894,
      "éĿ¶": 4895,
      "æĸ¹å½¢": 4896,
      "å»ºçŃĳçī©": 4897,
      "é¸£": 4898,
      "åī¥": 4899,
      "ä¸´æĹ¶": 4900,
      "åı¯ä»¥åĪĨä¸º": 4901,
      "äºĭçī©": 4902,
      "Ġ-": 4903,
      "åĲĮæŃ¥": 4904,
      "åĵģè´¨": 4905,
      "ä¹Ļçĥ¯": 4906,
      "47": 4907,
      "åĪĨè£Ĥ": 4908,
      "æ±īæĹı": 4909,
      "ç»´ä¿®": 4910,
      "é¢Ĥ": 4911,
      "55": 4912,
      "åıªæĺ¯": 4913,
      "ä¸īåįģ": 4914,
      "èį·åħ°": 4915,
      "ff": 4916,
      "æģĲ": 4917,
      "éĥ¨éķ¿": 4918,
      "æīĢç¤º": 4919,
      "å®īæİĴ": 4920,
      "èĩªä¸»": 4921,
      "çļĦåºĶçĶ¨": 4922,
      "çļĦèĥ½åĬĽ": 4923,
      "ç»ĵæĻ¶": 4924,
      "Ġan": 4925,
      "çļĦç»ĵæŀľ": 4926,
      "æ¡ĥ": 4927,
      "éªĮè¯ģ": 4928,
      "åľ°çĲĨåŃ¦": 4929,
      "ä½įç§»": 4930,
      "Ġ18": 4931,
      "ern": 4932,
      "åĮĹæĸ¹": 4933,
      "èµ·ä¹ī": 4934,
      "ç±»åŀĭçļĦ": 4935,
      "è¯¦ç»Ĩ": 4936,
      "ç¡Ŀ": 4937,
      "ä¸»äºº": 4938,
      "ç¢°": 4939,
      "42": 4940,
      "è¡¨çİ°åĩº": 4941,
      "ç»£": 4942,
      "çļĦåĲĦç§į": 4943,
      "åľ°åŁŁ": 4944,
      "çĭ±": 4945,
      "åĲĮä½įç´ł": 4946,
      "æľºçĲĨ": 4947,
      "åħ±äº«": 4948,
      "çĶµç¦»": 4949,
      "åĪĻæĺ¯": 4950,
      "éĢıæĺİ": 4951,
      "åĬĽäºİ": 4952,
      "æķĻä¼ļ": 4953,
      "ort": 4954,
      "æ¸¯åı£": 4955,
      "åĲįèĥľ": 4956,
      "åŁºåĩĨ": 4957,
      "å¸¸è§Ħ": 4958,
      "igma": 4959,
      "é«ĺçº§": 4960,
      "è´Łèį·": 4961,
      "å¹´çĶ±": 4962,
      "éĩįå»º": 4963,
      "æĢģåº¦": 4964,
      "1975": 4965,
      "ance": 4966,
      "ä¾¿äºİ": 4967,
      "åĿĩä¸º": 4968,
      "åĪĨè¾¨çİĩ": 4969,
      "å¤ĸäº¤": 4970,
      "å¤§åľ°": 4971,
      "ç¡ķå£«": 4972,
      "æłħ": 4973,
      "ä¸¤å¤§": 4974,
      "èħ°": 4975,
      "ä»¥ä¸ĬçļĦ": 4976,
      "çĶŁæĢģåŃ¦": 4977,
      "åľºæĻ¯": 4978,
      "éŁ©åĽ½": 4979,
      "åī©": 4980,
      "å¤§ä¼Ĺ": 4981,
      "ä¸ĭæ¸¸": 4982,
      "èĦĤèĤ": 4983,
      "æ¸£": 4984,
      "åĳ½åĲį": 4985,
      "é¦ĸéĥ½": 4986,
      "å®¡ç¾İ": 4987,
      "åıįé¦Ī": 4988,
      "æĥħç»ª": 4989,
      "ä¸´çķĮ": 4990,
      "æĺİæĺ¾çļĦ": 4991,
      "æĺ¾å¾®": 4992,
      "éģ¥æĦŁ": 4993,
      "ä½ĵéªĮ": 4994,
      "åºĶåıĺ": 4995,
      "åİŁèĳĹ": 4996,
      "çģ«ç®Ń": 4997,
      "åľ°åĿĢ": 4998,
      "ä¹Łä¸į": 4999,
      "å°ģå»º": 5000,
      "çļĦå°ı": 5001,
      "è¿Ł": 5002,
      "èĭ·": 5003,
      "çĲĨæĢ§": 5004,
      "æ·»åĬł": 5005,
      "è±ª": 5006,
      "çİ¯å¢ĥä¿ĿæĬ¤": 5007,
      "è¡¬": 5008,
      "çĽ¸ç»§": 5009,
      "1972": 5010,
      "ç¨į": 5011,
      "éª¤": 5012,
      "å®ŀéĻħä¸Ĭ": 5013,
      "æĶ¾å¤§": 5014,
      "çŁ¿äº§": 5015,
      "æķ¬": 5016,
      "æ¯Ķå¦Ĥ": 5017,
      "æĸĩçī©ä¿ĿæĬ¤åįķä½į": 5018,
      "èĦĤèĤª": 5019,
      "å®ŀæĹ¶": 5020,
      "åĩĨåĪĻ": 5021,
      "å¤ªå¹³æ´ĭ": 5022,
      "ä¾į": 5023,
      "åĬŀæ³ķ": 5024,
      "çī©è´¨çļĦ": 5025,
      "æįŁå®³": 5026,
      "è¾Ł": 5027,
      "æ»ļ": 5028,
      "æ²¿æµ·": 5029,
      "çļĩå®¶": 5030,
      "éĿ¢åĲĳ": 5031,
      "å±ķçİ°": 5032,
      "åĩºåĵģ": 5033,
      "å¹²æ¶ī": 5034,
      "çĭ¬ç«ĭçļĦ": 5035,
      "éĢ¸": 5036,
      "çīĪæľ¬": 5037,
      "åĩıå°ı": 5038,
      "ä¸ľäº¬": 5039,
      "çĬ¹å¤ª": 5040,
      "ob": 5041,
      "ç§ĺä¹¦": 5042,
      "è½½èį·": 5043,
      "å®ļå¾ĭ": 5044,
      "1976": 5045,
      "çģ«å±±": 5046,
      "ä¼Ł": 5047,
      "æµĭç»ĺ": 5048,
      "ä¸°å¯ĮçļĦ": 5049,
      "çŃ¾è®¢": 5050,
      "æµ¦": 5051,
      "çļĦä»£è¡¨": 5052,
      "èĻļæĭŁ": 5053,
      "ç¾İåŃ¦": 5054,
      "çº¿è·¯": 5055,
      "å®ĩèĪª": 5056,
      "å¨ĺ": 5057,
      "å¼Ģéĩĩ": 5058,
      "é©¶": 5059,
      "å¸ĪèĮĥ": 5060,
      "1973": 5061,
      "æłĳèĦĤ": 5062,
      "å¹½": 5063,
      "æ°´äº§": 5064,
      "è¥¿åĵ¥": 5065,
      "å¯¹æ¯Ķ": 5066,
      "49": 5067,
      "ä¸İåħ¶": 5068,
      "æ£Ĵ": 5069,
      "åĩºçİ°çļĦ": 5070,
      "è®¿éĹ®": 5071,
      "çļĦåĬŁèĥ½": 5072,
      "æĽ¾ä»»": 5073,
      "èĴ¸æ±½": 5074,
      "åľ°è²Į": 5075,
      "ä»įçĦ¶": 5076,
      "åĽŀåĪ°": 5077,
      "ĠThe": 5078,
      "æĭĴ": 5079,
      "åŁºçĿ£æķĻ": 5080,
      "å¤§èĩ´": 5081,
      "çº¦ä¸º": 5082,
      "äººåľ¨": 5083,
      "éĦ": 5084,
      "è¢ĸ": 5085,
      "äºĨä¸ŃåĽ½": 5086,
      "éķģ": 5087,
      "æĻ°": 5088,
      "ĠU": 5089,
      "ä¸Ńæĸĩ": 5090,
      "é«ĺäºİ": 5091,
      "æĬĹæĹ¥": 5092,
      "ä»¥åīį": 5093,
      "ç«ĭæ³ķ": 5094,
      "æł¹æľ¬": 5095,
      "ies": 5096,
      "æĬļ": 5097,
      "çħ§çĽ¸": 5098,
      "åĲ¾": 5099,
      "çĶ¨æ°´": 5100,
      "è¯Ńè¨ĢæĸĩåŃĹ": 5101,
      "und": 5102,
      "æĲº": 5103,
      "é©¾": 5104,
      "å±ĤéĿ¢": 5105,
      "è¿·": 5106,
      "éĹ²": 5107,
      "æĽ´æĸ°": 5108,
      "1937": 5109,
      "æĸĩåĮĸçļĦ": 5110,
      "85": 5111,
      "èŀºæĹĭ": 5112,
      "å®ŀä½ĵ": 5113,
      "éĵŃ": 5114,
      "æĮ¤": 5115,
      "æľ¯è¯Ń": 5116,
      "1928": 5117,
      "æ©¡": 5118,
      "åĬŁèĥ½çļĦ": 5119,
      "å¢¨è¥¿åĵ¥": 5120,
      "æŀĦæĪĲçļĦ": 5121,
      "çģ«çģ¾": 5122,
      "è¡Ģæ¶²": 5123,
      "æĦŁåıĹ": 5124,
      "æ°´åĪĨ": 5125,
      "å¼ºåĮĸ": 5126,
      "è´¾": 5127,
      "å¾ĹåĪ°äºĨ": 5128,
      "è¡¥åģ¿": 5129,
      "èĬĿ": 5130,
      "çĻĮ": 5131,
      "ä¿®æŃ£": 5132,
      "éĹ¸": 5133,
      "å¥ĭ": 5134,
      "æ²¹æ°Ķ": 5135,
      "æĸĩéĽĨ": 5136,
      "åı¯çĶ¨äºİ": 5137,
      "æĺ¯éĢļè¿ĩ": 5138,
      "å·²çŁ¥": 5139,
      "åĽŀå½Ĵ": 5140,
      "çĶ¸": 5141,
      "form": 5142,
      "å¡ĳæĢ§": 5143,
      "ç»Ĵ": 5144,
      "çĶ»éĿ¢": 5145,
      "æĺ¥ç§ĭ": 5146,
      "éĶħ": 5147,
      "æİĪäºĪ": 5148,
      "å¤§è§Ħæ¨¡": 5149,
      "åĲĦèĩª": 5150,
      "1970": 5151,
      "çļĦçİ°è±¡": 5152,
      "çŁ¿çŁ³": 5153,
      "éªĳ": 5154,
      "è¡ĮæĶ¿å½Ĵå±ŀ": 5155,
      "åł¤": 5156,
      "åīĤéĩı": 5157,
      "åĨħèĴĻåı¤": 5158,
      "1951": 5159,
      "ç¥¥": 5160,
      "æĽ¿ä»£": 5161,
      "çĶĺèĤĥ": 5162,
      "éĢļçĶ¨": 5163,
      "æ¶ħ": 5164,
      "å°½ç®¡": 5165,
      "èĩ´åĬĽäºİ": 5166,
      "ç»µ": 5167,
      "-\\": 5168,
      "éĢĤå®ľ": 5169,
      "é»Ħèī²": 5170,
      "rans": 5171,
      "åĽ´ç»ķ": 5172,
      "èģĶåĲĪä¼ļ": 5173,
      "å¢ĵèĳ¬": 5174,
      "åĲ¸å¼ķ": 5175,
      "æ°§åĮĸçī©": 5176,
      "åĪ°è¾¾": 5177,
      "pha": 5178,
      "ä¸Ńåħ±": 5179,
      "åıĬåħ¶ä»ĸ": 5180,
      "æĹłæľº": 5181,
      "ä¸Ģä½ĵ": 5182,
      "çķħ": 5183,
      "æĢ»ç»ĵ": 5184,
      "ä¹Łä¼ļ": 5185,
      "ics": 5186,
      "æ³¨åħ¥": 5187,
      "ement": 5188,
      "1929": 5189,
      "å¹´éĻįæ°´éĩı": 5190,
      "æ±Ĥè§£": 5191,
      "åħ´è¶£": 5192,
      "æŃĮåī§": 5193,
      "æŁıæŀĹ": 5194,
      "äºĴèģĶç½ĳ": 5195,
      "éĩįåºĨ": 5196,
      "æ¼Ĥ": 5197,
      "èīºæľ¯å®¶": 5198,
      "æĽ´å¤ļ": 5199,
      "ç¾¤å²Ľ": 5200,
      "çŃīç¦»åŃĲä½ĵ": 5201,
      "åĤ¬åĮĸåīĤ": 5202,
      "æľĢæĹ©çļĦ": 5203,
      "åıĹä½ĵ": 5204,
      "å·¥ä½ľèĢħ": 5205,
      "æµ·åºķ": 5206,
      "å®½åº¦": 5207,
      "çĪ±æĥħ": 5208,
      "éĩī": 5209,
      "èĬĤçĤ¹": 5210,
      "ese": 5211,
      "æľĽè¿ľ": 5212,
      "ä¸ĸçºªæľ«": 5213,
      "éĴ¾": 5214,
      "1974": 5215,
      "æľºç»Ħ": 5216,
      "æŃĩ": 5217,
      "å¥Ī": 5218,
      "å¸¸ä½ı": 5219,
      "1977": 5220,
      "ä»»æķĻ": 5221,
      "1936": 5222,
      "å¡ĳéĢł": 5223,
      "pl": 5224,
      "æĬĴ": 5225,
      "ç§©åºı": 5226,
      "è¿ĻéĩĮ": 5227,
      "ç»ĵæŀĦåĴĮ": 5228,
      "èĩ³ä»Ĭ": 5229,
      "æŁĦ": 5230,
      "åĬ¨èĦī": 5231,
      "ä¸ºä»£è¡¨": 5232,
      "ç§¯ç´¯": 5233,
      "é¡·": 5234,
      "erv": 5235,
      "1966": 5236,
      "eth": 5237,
      "1935": 5238,
      "çİĭåĽ½": 5239,
      "Ġçº¦": 5240,
      "åľ°å¸¦": 5241,
      "99": 5242,
      "çºł": 5243,
      "çŁ¢": 5244,
      "åĮ¹éħį": 5245,
      "âĢĿï¼ĪãĢĬ": 5246,
      "çļĦçĶŁäº§": 5247,
      "åŃ£é£İ": 5248,
      "éĶĮ": 5249,
      "ä¼½": 5250,
      "èĴ¸åıĳ": 5251,
      "åĴ¸": 5252,
      "åľ°åĮºçĶŁäº§æĢ»åĢ¼": 5253,
      "æķ°æį®çļĦ": 5254,
      "æľĽè¿ľéķľ": 5255,
      "æĿĨèıĮ": 5256,
      "ä¾ĿéĿł": 5257,
      "éĺħè¯»": 5258,
      "çŃīå¤ļç§į": 5259,
      "æŃ¤ä¹¦": 5260,
      "ha": 5261,
      "åı¸æ³ķ": 5262,
      "de": 5263,
      "å®£å¸ĥ": 5264,
      "åı¦ä¸Ģæĸ¹éĿ¢": 5265,
      "åĩī": 5266,
      "ä¼łè¯´": 5267,
      "åħīç»ª": 5268,
      "ä¸»å¯¼": 5269,
      "å·®åĪ«": 5270,
      "åħ´èµ·": 5271,
      "åŃ¦è¯´": 5272,
      "å¹²æĹ±": 5273,
      "éĶĻè¯¯": 5274,
      "æĹ¥çĽĬ": 5275,
      "Ġï¼ī": 5276,
      "æĪĸåħ¶ä»ĸ": 5277,
      "åĬĽåĴĮ": 5278,
      "æ°ĳåĽ½": 5279,
      "ä¸»è§Ĥ": 5280,
      "äº¤éĢļè¿Ĳè¾ĵ": 5281,
      "åĲ¯åĬ¨": 5282,
      "èĹıåĵģ": 5283,
      "å½©èī²": 5284,
      "åįłåľ°": 5285,
      "400": 5286,
      "æī¶": 5287,
      "çĹħåİŁ": 5288,
      "åı¯éĿłæĢ§": 5289,
      "èĤ½": 5290,
      "ç®¡çĲĨçļĦ": 5291,
      "éĿĴéĵľ": 5292,
      "ç©·": 5293,
      "ä¸Ĭæľī": 5294,
      "éĩįçĤ¹æĸĩçī©ä¿ĿæĬ¤åįķä½į": 5295,
      "èģĮèĥ½": 5296,
      "åĲı": 5297,
      "é¹¿": 5298,
      "æŁ´": 5299,
      "AA": 5300,
      "çİ¯å¢ĥä¸Ń": 5301,
      "è¯ģæį®": 5302,
      "èĸĦèĨľ": 5303,
      "åħ³èĬĤ": 5304,
      "ä¸ľæĸ¹": 5305,
      "æīĭæľ¯": 5306,
      "ä»Ģä¹Ī": 5307,
      "åķĨåĬ¡": 5308,
      "1968": 5309,
      "å°ĳéĩı": 5310,
      "Ġä¸ŃåĽ½åľ°çĲĨ": 5311,
      "è§Ĩé¢ĳ": 5312,
      "ç¡®ç«ĭ": 5313,
      "éģµå¾ª": 5314,
      "æŃ§": 5315,
      "ä¿®æĶ¹": 5316,
      "èµ°åĲĳ": 5317,
      "åį¿": 5318,
      "åŁºåĽłç»Ħ": 5319,
      "è¯ļ": 5320,
      "è¾½å®ģ": 5321,
      "åĩ¹": 5322,
      "ç£·éħ¸": 5323,
      "åĪĹåħ¥": 5324,
      "äºĴåĬ¨": 5325,
      "èİ·ç¬¬": 5326,
      "ĠÐ": 5327,
      "åįĹæĸ¹": 5328,
      "æŀĦä»¶": 5329,
      "æ¼Ķå¥ı": 5330,
      "åĻ¨åĴĮ": 5331,
      "è´¨çļĦ": 5332,
      "åį¸": 5333,
      "+\\": 5334,
      "RNA": 5335,
      "ç´§å¯Ĩ": 5336,
      "ç«ĭä½ĵ": 5337,
      "1938": 5338,
      "åĿª": 5339,
      "æ·±åĪ»": 5340,
      "æľºæ¢°å·¥ç¨ĭ": 5341,
      "ä»£è¡¨å¤§ä¼ļ": 5342,
      "æľĢä½İ": 5343,
      "åĭĥ": 5344,
      "åį±æľº": 5345,
      "ä¸Ńåįİäººæ°ĳåħ±åĴĮåĽ½æĪĲç«ĭ": 5346,
      "ç´«å¤ĸ": 5347,
      "æ¢¯åº¦": 5348,
      "éĥ¨çļĦ": 5349,
      "æĬĢæľ¯åĴĮ": 5350,
      "è¡ĮæĺŁ": 5351,
      "Ġpl": 5352,
      "å¥ĸæľĢä½³": 5353,
      "çŀ¬": 5354,
      "çĽ¸åĲĮçļĦ": 5355,
      "çļĦæĢĿæĥ³": 5356,
      "ä½Ĳ": 5357,
      "è£Ķ": 5358,
      "äºĮæ¬¡": 5359,
      "æįķæį": 5360,
      "æĴ¤": 5361,
      "èµĦæľ¬ä¸»ä¹ī": 5362,
      "âī": 5363,
      "è¿Ī": 5364,
      "çļĦè®¾è®¡": 5365,
      "çĶŁæ®ĸ": 5366,
      "çĶµæºĲ": 5367,
      "åħīçº¤": 5368,
      "æĲŃ": 5369,
      "Ġex": 5370,
      "åħĥä»£": 5371,
      "çİ°åľ¨": 5372,
      "å±±èĦī": 5373,
      "ä¹¡æĿĳ": 5374,
      "æĦŁçŁ¥": 5375,
      "å½¢å¼ıçļĦ": 5376,
      "Ġä¸ŃåĮ»èį¯": 5377,
      "çŃīé¢ĨåŁŁ": 5378,
      "çĶµè§£": 5379,
      "è¿ĲèĲ¥": 5380,
      "åİŁèĳĹåĩºçīĪ": 5381,
      "å²³": 5382,
      "åĽ½ç«ĭ": 5383,
      "äººä¸İ": 5384,
      "1940": 5385,
      "ä¸įä¼ļ": 5386,
      "æĸ°åŀĭ": 5387,
      "èµ·æºĲ": 5388,
      "çŃĭ": 5389,
      "æĴ°åĨĻ": 5390,
      "å¹´ä»£åĪĿ": 5391,
      "ç¿ħ": 5392,
      "èī¯å¥½": 5393,
      "åĪĴåĪĨä¸º": 5394,
      "åıĳçĶŁåľ¨": 5395,
      "çłĶåıĳ": 5396,
      "åĩºçīĪäºĨ": 5397,
      "çķľçī§": 5398,
      "éĻĪåĪĹ": 5399,
      "æĬ¥çº¸": 5400,
      "è¿ĩåİ»": 5401,
      "ç¦½": 5402,
      "è¶ħå£°": 5403,
      "çĳŀåħ¸": 5404,
      "çĶ³è¯·": 5405,
      "åĽ¾å½¢": 5406,
      "è·¯å¾Ħ": 5407,
      "ä½ľçĶ¨çļĦ": 5408,
      "åĸ»": 5409,
      "çĶŁåĬ¨": 5410,
      "æľºåľº": 5411,
      "è¯ŃéŁ³": 5412,
      "1927": 5413,
      "çĶŁç´ł": 5414,
      "Al": 5415,
      "è¾ĥå°ĳ": 5416,
      "çĶŁäº§çļĦ": 5417,
      "åħħæ»¡": 5418,
      "è½¬åĮĸä¸º": 5419,
      "åĽŀæĶ¶": 5420,
      "è½¬åĲĳ": 5421,
      "Ġon": 5422,
      "æ¸ħæĻ°": 5423,
      "æĬĢèĥ½": 5424,
      "çĽ¸ä½į": 5425,
      "è´§çī©": 5426,
      "éķľå¤´": 5427,
      "åħ¬å¼Ģ": 5428,
      "è¿Ľç¨ĭ": 5429,
      "1967": 5430,
      "åĴĮæ°´": 5431,
      "é»ĳèī²": 5432,
      "åĪ¶çīĩ": 5433,
      "äºļçĥŃå¸¦": 5434,
      "æĦıå¿Ĺ": 5435,
      "èµł": 5436,
      "åħ±æĮ¯": 5437,
      "åĬ©äºİ": 5438,
      "43": 5439,
      "æİĴæ°´": 5440,
      "é¼İ": 5441,
      "ç¨ĭåº¦ä¸Ĭ": 5442,
      "è¡¨å¾ģ": 5443,
      "åĨįçĶŁ": 5444,
      "æĹ¨åľ¨": 5445,
      "åĲĬ": 5446,
      "åľ¨ç¾İåĽ½": 5447,
      "æľºä¼ļ": 5448,
      "å¤ļåħĥ": 5449,
      "ç¥Ģ": 5450,
      "çĽ´èĩ³": 5451,
      "alpha": 5452,
      "41": 5453,
      "æĪĺåĽ½": 5454,
      "åĪĽä½ľçļĦ": 5455,
      "ä¸ĵçĶ¨": 5456,
      "å·¨å¤§": 5457,
      "åĬªåĬĽ": 5458,
      "ä¸ºä¸ŃåĽ½": 5459,
      "èĤĸ": 5460,
      "å¤©ä½ĵ": 5461,
      "åĪĿå§ĭ": 5462,
      "$ãĢĤ": 5463,
      "çĵ¶": 5464,
      "çĽĳæİ§": 5465,
      "ambda": 5466,
      "åıĳéħµ": 5467,
      "è®¾è®¡çļĦ": 5468,
      "å¹³çŃī": 5469,
      "å¹¶äºİ": 5470,
      "ä¸ĢèĪ¬ä¸º": 5471,
      "å®Įæķ´çļĦ": 5472,
      "æĺ¯å°Ĩ": 5473,
      "èĪ±": 5474,
      "èĢģå¹´": 5475,
      "åħ¨åĽ½éĩįçĤ¹æĸĩçī©ä¿ĿæĬ¤åįķä½į": 5476,
      "ç³Ĭ": 5477,
      "ĠèĪªç©º": 5478,
      "è¯įæ±ĩ": 5479,
      "ç±»åĪ«": 5480,
      "åĪĬçī©": 5481,
      "æĬķå½±": 5482,
      "æľĢéĩįè¦ģçļĦ": 5483,
      "å¼ĤæĢ§": 5484,
      "åįĹå®ĭ": 5485,
      "çĤ®": 5486,
      "ä¹łæĥ¯": 5487,
      "æµģçļĦ": 5488,
      "èĭ±éĽĦ": 5489,
      "ä¸Ģæĸ¹éĿ¢": 5490,
      "å¥½åľ°": 5491,
      "1969": 5492,
      "æ¡Īä»¶": 5493,
      "åĮĸçī©": 5494,
      "ä¸Ľä¹¦": 5495,
      "éĩįéĩı": 5496,
      "éĤª": 5497,
      "ä¸»è¦ģä¸º": 5498,
      "æ¹ĺ": 5499,
      "sigma": 5500,
      "è¡ĮçļĦ": 5501,
      "å±¥": 5502,
      "å°Ķæĸ¯": 5503,
      "èĳĹåĲįçļĦ": 5504,
      "æĶ¶ç¼©": 5505,
      "phi": 5506,
      "å¹´æ¯ķä¸ļäºİ": 5507,
      "å¹¿å·ŀ": 5508,
      "åŃ£èĬĤ": 5509,
      "æ°´ä¸Ń": 5510,
      "å¦ĤåĽ¾": 5511,
      "å¸¸ä½ıäººåı£": 5512,
      "è¿ĶåĽŀ": 5513,
      "æ¼Ĩ": 5514,
      "å¾®è§Ĥ": 5515,
      "æ¨¡åĿĹ": 5516,
      "æııç»ĺ": 5517,
      "æŀļ": 5518,
      "é¦ĨèĹı": 5519,
      "æľ¨æĿĲ": 5520,
      "æ¹ĸæ³Ĭ": 5521,
      "åįľ": 5522,
      "é»Ħæ²³": 5523,
      "1933": 5524,
      "1930": 5525,
      "ç¼ħ": 5526,
      "å¼ķå¯¼": 5527,
      "äººå±ħçİ¯å¢ĥç§ĳåŃ¦": 5528,
      "è®½": 5529,
      "ä¸Ģç±»": 5530,
      "çļĦçī¹å¾ģ": 5531,
      "åıĪæľī": 5532,
      "æĸĩåĮĸéģĹäº§": 5533,
      "çħ§çīĩ": 5534,
      "æ£ķ": 5535,
      "åħŃå¹´": 5536,
      "1941": 5537,
      "åĮĹå®ĭ": 5538,
      "æŃ¥éª¤": 5539,
      "åĽ¾æ¡Ī": 5540,
      "æľįåĬ¡çļĦ": 5541,
      "æħĪ": 5542,
      "åįĬå²Ľ": 5543,
      "çŁ¿åºĬ": 5544,
      "æĬ½è±¡": 5545,
      "æģ°": 5546,
      "åŃ¦çłĶç©¶": 5547,
      "åŃĺåľ¨äºİ": 5548,
      "1939": 5549,
      "Delta": 5550,
      "ç¢°æĴŀ": 5551,
      "66": 5552,
      "æĺŃ": 5553,
      "è¤Ĳèī²": 5554,
      "çļĦå½¢æĪĲ": 5555,
      "Ġäººå±ħçİ¯å¢ĥç§ĳåŃ¦": 5556,
      "1934": 5557,
      "æĬĽ": 5558,
      "çĶ²åŁº": 5559,
      "éĵĢ": 5560,
      "éĩįè¦ģä½ľçĶ¨": 5561,
      "æ©¡èĥ¶": 5562,
      "ä¼Ĭæĸ¯åħ°": 5563,
      "çļĦç©ºéĹ´": 5564,
      "æ¸Ĭ": 5565,
      "æ¯įäº²": 5566,
      "ä»ĸè¿ĺ": 5567,
      "1971": 5568,
      "å¡ŀå°Ķ": 5569,
      "å·´è¥¿": 5570,
      "å°Ķå¾·": 5571,
      "åº¦åĴĮ": 5572,
      "äººæĸĩ": 5573,
      "åī§åľº": 5574,
      "å§ĭäºİ": 5575,
      "åį³åı¯": 5576,
      "å®ĥæĺ¯": 5577,
      "åįıåĲĮ": 5578,
      "æīŃ": 5579,
      "å±±åľ°": 5580,
      "æĶ¾çĶµ": 5581,
      "ä¸Ģéĥ¨åĪĨ": 5582,
      "io": 5583,
      "åĲĦçº§": 5584,
      "æĿ¥æºĲäºİ": 5585,
      "ç¦»å¼Ģ": 5586,
      "ç»Ŀç¼ĺ": 5587,
      "æīģ": 5588,
      "äºĨä¸Ģä¸ª": 5589,
      "tern": 5590,
      "èĲ§": 5591,
      "æĽ´åĲįä¸º": 5592,
      "éĤĢ": 5593,
      "ega": 5594,
      "è´µå·ŀ": 5595,
      "è¶³å¤Ł": 5596,
      "å¸ĮæľĽ": 5597,
      "çļĦå¤§å°ı": 5598,
      "æ½ľåľ¨": 5599,
      "èĩªæĹĭ": 5600,
      "å¾®æ³¢": 5601,
      "èįĲ": 5602,
      "èĭıå·ŀ": 5603,
      "sum": 5604,
      "æĮĩä»¤": 5605,
      "è¯¸å¤ļ": 5606,
      "çļĦåĲĮæĹ¶": 5607,
      "ç¥ŀè¯Ŀ": 5608,
      "çĵ£": 5609,
      "ĠåĮĹäº¬": 5610,
      "åĩŃ": 5611,
      "ç»ĻäºĪ": 5612,
      "ä¸ŃåŃ¦": 5613,
      "æ¸¸æĪı": 5614,
      "Ġæ³ķåŃ¦": 5615,
      "çļĦæĥħåĨµä¸ĭ": 5616,
      "éĿĸ": 5617,
      "1925": 5618,
      "ug": 5619,
      "å®ļæľŁ": 5620,
      "å¹´å¹³åĿĩæ°Ķæ¸©": 5621,
      "Ð¸": 5622,
      "æµ·ä¸Ĭ": 5623,
      "å®ĩèĪªç§ĳåŃ¦ä¸İæĬĢæľ¯": 5624,
      "èĭ±æĸĩ": 5625,
      "æº¶äºİ": 5626,
      "çĶ¨ä»¥": 5627,
      "ä¸»è¦ģçļĦ": 5628,
      "èķ¾": 5629,
      "èĤ©": 5630,
      "æĪĺæĸĹ": 5631,
      "æĿ¥çľĭ": 5632,
      "ä»»æĦı": 5633,
      "éĥĬ": 5634,
      "ä¸ĢæĿ¡": 5635,
      "å¯¨": 5636,
      "åĨ¯": 5637,
      "èµĦæł¼": 5638,
      "æī®": 5639,
      "äºİæĺ¯": 5640,
      "ĠèĪªç©ºå®ĩèĪªç§ĳåŃ¦ä¸İæĬĢæľ¯": 5641,
      "her": 5642,
      "è´ŀ": 5643,
      "çŁ³åĻ¨æĹ¶ä»£": 5644,
      "ä¹¦æ³ķ": 5645,
      "å¯»æī¾": 5646,
      "åŃ¦å£«": 5647,
      "åº·çĨĻ": 5648,
      "ä¹ĲåĻ¨": 5649,
      "æĹłè®º": 5650,
      "æĶ»åĩ»": 5651,
      "çªģçł´": 5652,
      "åħ¥ä¾µ": 5653,
      "å¼¯æĽ²": 5654,
      "é²ľæĺİ": 5655,
      "å½¼å¾Ĺ": 5656,
      "1924": 5657,
      "åİĨåı²ä¸Ĭ": 5658,
      "âĢ¦ï¼Ī": 5659,
      "ç¼Ķ": 5660,
      "æ°ĳä¼Ĺ": 5661,
      "æ²ŁéĢļ": 5662,
      "è¿ĩæ»¤": 5663,
      "çĶŁæĢģçİ¯å¢ĥ": 5664,
      "æ¿Ģç´ł": 5665,
      "ä¸ŃæīĢ": 5666,
      "ä¸ĵåĪ©": 5667,
      "çļĦæķ°æį®": 5668,
      "åįģå¹´": 5669,
      "ç´¢å¼ķ": 5670,
      "ä¸ºä¸Ńå¿ĥ": 5671,
      "æľīéĻĲåħ¬åı¸": 5672,
      "åĭĩ": 5673,
      "èķ´": 5674,
      "æł¼åħ°": 5675,
      "âħ¡": 5676,
      "åħ¬é¡·": 5677,
      "å°±ä¼ļ": 5678,
      "æĵħ": 5679,
      "æĿ¯": 5680,
      "ä¸ŃåĽ½çİ°ä»£": 5681,
      "èĢĮåľ¨": 5682,
      "éķ¿ç¯ĩå°ıè¯´": 5683,
      "ç½ķ": 5684,
      "åĮĸåŃ¦åıįåºĶ": 5685,
      "èĥľåĪ©": 5686,
      "æ¸©å¸¦": 5687,
      "åĭĺæİ¢": 5688,
      "è¿ĩç¨ĭä¸ŃçļĦ": 5689,
      "çĽ¸è¿ŀ": 5690,
      "é³ŀ": 5691,
      "çĳŀå£«": 5692,
      "åħīæºĲ": 5693,
      "ç¬¬äºĶ": 5694,
      "åıĳçİ°äºĨ": 5695,
      "æĶ¶çĽĬ": 5696,
      "æ¶Īè´¹èĢħ": 5697,
      "çļĦæķħäºĭ": 5698,
      "çħ§æĺİ": 5699,
      "åĵ²åŃ¦å®¶": 5700,
      "å¤įåħ´": 5701,
      "æŀģåĮĸ": 5702,
      "éļ§éģĵ": 5703,
      "}(": 5704,
      "å¹´å½ĵéĢī": 5705,
      "æĻ¯çĤ¹": 5706,
      "åĨĪ": 5707,
      "å®ĺåĳĺ": 5708,
      "éŃĤ": 5709,
      "ç«ĭæĸ¹ç±³": 5710,
      "æĭĸ": 5711,
      "äº¬åī§": 5712,
      "åħĪçĶŁ": 5713,
      "lambda": 5714,
      "1942": 5715,
      "åĲ«ä¹ī": 5716,
      "ä¸ĵé¢ĺ": 5717,
      "æģĭ": 5718,
      "åħ¬å®ī": 5719,
      "çģµæ´»": 5720,
      "åģľæŃ¢": 5721,
      "}^": 5722,
      "å°Ŀ": 5723,
      "çī©æĸĻ": 5724,
      "è¥¿èĹı": 5725,
      "æĶ¿æĿĥ": 5726,
      "çŃīåĽłç´ł": 5727,
      "ä¸»åĬŀ": 5728,
      "è¿ĽåĮĸ": 5729,
      "1931": 5730,
      "æµĭéªĮ": 5731,
      "ĠåľŁæľ¨å·¥ç¨ĭ": 5732,
      "åĮĪ": 5733,
      "è§Ĩè§Ĵ": 5734,
      "tr": 5735,
      "æŁĲä¸ª": 5736,
      "ç»ıæµİåıĳå±ķ": 5737,
      "å£ģçĶ»": 5738,
      "ä»£æĽ¿": 5739,
      "æ°´æĸĩ": 5740,
      "éģĹè¿¹": 5741,
      "çĻ»è®°": 5742,
      "æĿī": 5743,
      "åĲįè¯į": 5744,
      "å®ŀçĶ¨": 5745,
      "row": 5746,
      "è®ºè¿°": 5747,
      "èį£èªī": 5748,
      "âĢĿï¼Ľ": 5749,
      "Ġ17": 5750,
      "åħīçĶµ": 5751,
      "å°ĨåĨĽ": 5752,
      "åĺ´": 5753,
      "å°ĳæķ°æ°ĳæĹı": 5754,
      "ium": 5755,
      "æĭ¼": 5756,
      "ace": 5757,
      "å¤ĦçļĦ": 5758,
      "æĺİæ¸ħ": 5759,
      "èĩªçĦ¶ä¿ĿæĬ¤åĮº": 5760,
      "1926": 5761,
      "å°¼æĸ¯": 5762,
      "ide": 5763,
      "ç¦ģæŃ¢": 5764,
      "150": 5765,
      "éĽķå¡ĳ": 5766,
      "çĭ¬çī¹çļĦ": 5767,
      "è¢ģ": 5768,
      "æ¼ĶåĶ±": 5769,
      "ä»¥æŃ¤": 5770,
      "çĽ¸åıį": 5771,
      "è®°èĢħ": 5772,
      "æ³¢åħ°": 5773,
      "ite": 5774,
      "æĬĺå°Ħ": 5775,
      "çłĮ": 5776,
      "å®ŀçİ°äºĨ": 5777,
      "é¾Ļæ±Ł": 5778,
      "ç¼ºçĤ¹": 5779,
      "ä½ĵçİ°äºĨ": 5780,
      "éĩĩæł·": 5781,
      "èĬŃ": 5782,
      "ä¸Ģå¸¦": 5783,
      "ç¦ħ": 5784,
      "å¯ĦçĶŁ": 5785,
      "è¡Įä¸ºçļĦ": 5786,
      "åįķçĭ¬": 5787,
      "åĤħ": 5788,
      "åħ¥å°Ħ": 5789,
      "ak": 5790,
      "æ¿ĢåĬ±": 5791,
      "Ġch": 5792,
      "äºĴçĽ¸": 5793,
      "æĽ¾åľ¨": 5794,
      "æĬĢå·§": 5795,
      "æ°´èµĦæºĲ": 5796,
      "ä¸įèī¯": 5797,
      "çłĶç©¶èĢħ": 5798,
      "å½ĵåīį": 5799,
      "çķĮçļĦ": 5800,
      "å¤·": 5801,
      "å¤±åİ»": 5802,
      "èŁ": 5803,
      "å¹¶éĿŀ": 5804,
      "èĽĩ": 5805,
      "åıĺæĪĲ": 5806,
      "åĪĨåĮĸ": 5807,
      "çłĶç©¶åĴĮ": 5808,
      "å°ıçļĦ": 5809,
      "èĩ³å°ĳ": 5810,
      "è¢«è®¤ä¸ºæĺ¯": 5811,
      "åıĳçĹħ": 5812,
      "å¨ľ": 5813,
      "ç¼¸": 5814,
      "å¡ĳæĸĻ": 5815,
      "ä¸Ģè¯į": 5816,
      "æ°´åĪ©å·¥ç¨ĭ": 5817,
      "68": 5818,
      "éĤ£ä¹Ī": 5819,
      "åĲĦé¡¹": 5820,
      "ron": 5821,
      "åľºåľ°": 5822,
      "æķ°çļĦ": 5823,
      "ase": 5824,
      "åĪ»çĶ»": 5825,
      "hu": 5826,
      "æľīåĬ©äºİ": 5827,
      "ew": 5828,
      "åıĪåĲį": 5829,
      "å·¥åİĤ": 5830,
      "sil": 5831,
      "ä¸įä¹ħ": 5832,
      "æ°Ķæµģ": 5833,
      "è·Łè¸ª": 5834,
      "åįĹéĿŀ": 5835,
      "éĻįè§£": 5836,
      "ä¸ªæĢ§": 5837,
      "å¦¹": 5838,
      "æĩ": 5839,
      "å¸¸å¸¸": 5840,
      "ĊĊãĢĢ": 5841,
      "åĪĨéĴŁ": 5842,
      "çļĦä¸ĢäºĽ": 5843,
      "æľīæķĪçļĦ": 5844,
      "æ¯ķä¸ļåĲİ": 5845,
      "é¬¼": 5846,
      "è¿ĲåĬ¨åĳĺ": 5847,
      "æ°Ľ": 5848,
      "åĨħåľ¨": 5849,
      "æ³¢æ®µ": 5850,
      "çĽ¸éĤ»": 5851,
      "å±¿": 5852,
      "éŁ§": 5853,
      "çļĦå¤ĸ": 5854,
      "æĺĨèĻ«": 5855,
      "Ġè¯Ńè¨ĢæĸĩåŃĹ": 5856,
      "åĩºçīĪçī©": 5857,
      "éĻ¢éķ¿": 5858,
      "ä¹ĭä¸º": 5859,
      "å¨ģèĥģ": 5860,
      "åĭ¤": 5861,
      "å¹´åº¦": 5862,
      "ä»Ĭå±ŀ": 5863,
      "èĤĮèĤī": 5864,
      "çļĦè§Ħå®ļ": 5865,
      "æłĩåĩĨåĮĸ": 5866,
      "çļĦæĶ¿æ²»": 5867,
      "1932": 5868,
      "æ±īä»£": 5869,
      "æł¼å°Ķ": 5870,
      "çŁŃç¯ĩå°ıè¯´": 5871,
      "å°ģéĹŃ": 5872,
      "èİİ": 5873,
      "Ġfl": 5874,
      "å¯ĵ": 5875,
      "åħīåŃĲ": 5876,
      "å¼ĺ": 5877,
      "ä¸īå¤§": 5878,
      "CA": 5879,
      "ä¾Ľç»Ļ": 5880,
      "åºĶå¯¹": 5881,
      "âĳ¦": 5882,
      "ä¸¤æ¬¡": 5883,
      "ç§»æ°ĳ": 5884,
      "æ³³": 5885,
      "åĽŀåĽ½": 5886,
      "çĽ¸å½ĵäºİ": 5887,
      "çĸ²": 5888,
      "è¶ĬåįĹ": 5889,
      "åĮ»éĻ¢": 5890,
      "pH": 5891,
      "èĻ¾": 5892,
      "ä¸ĥå¹´": 5893,
      "è¯±å¯¼": 5894,
      "çĭĦ": 5895,
      "åĳ¨è¾¹": 5896,
      "åĪĿæŃ¥": 5897,
      "çĽ´çº¿": 5898,
      "ä»»åĳ½": 5899,
      "ç¼ĸçºĤ": 5900,
      "çĲĨè®ºçļĦ": 5901,
      "ç±³çļĦ": 5902,
      "å¹´ä»£æľ«": 5903,
      "çĶ«": 5904,
      "æ°´ä½ĵ": 5905,
      "æľĢä¼ĺ": 5906,
      "éļĶç¦»": 5907,
      "å¤§å¤§": 5908,
      "çĽ¸å¯¹äºİ": 5909,
      "çºªå½ķ": 5910,
      "ä¹ĭéĹ´çļĦåħ³ç³»": 5911,
      "âĢ¦âĢ¦": 5912,
      "åĴĮéĿŀ": 5913,
      "çĶµä½į": 5914,
      "å¿ħçĦ¶": 5915,
      "æ°´æ³¥": 5916,
      "é¦ĸåºľ": 5917,
      "ann": 5918,
      "ition": 5919,
      "åįĩé«ĺ": 5920,
      "éĻĨç»Ń": 5921,
      "éĨĽ": 5922,
      "åħĶ": 5923,
      "è¶Ĭå¤§": 5924,
      "åı¯ä»¥åľ¨": 5925,
      "çŁ¿å±±": 5926,
      "æĪªéĿ¢": 5927,
      "å¥¥æĸ¯": 5928,
      "è¿Ļéĥ¨": 5929,
      "å¾ĹåĪ°çļĦ": 5930,
      "çī©æµģ": 5931,
      "è½¬åĬ¨": 5932,
      "ç£ģæĢ§": 5933,
      "æĮĩç¤º": 5934,
      "æŀģéĻĲ": 5935,
      "èģĮè´£": 5936,
      "çĽĳç®¡": 5937,
      "Ġæľºæ¢°å·¥ç¨ĭ": 5938,
      "æľºä½ĵ": 5939,
      "å·¥ç¨ĭå¸Ī": 5940,
      "å®ĹæĹ¨": 5941,
      "ign": 5942,
      "ç¼ĸåĨĻ": 5943,
      "åīªåĪĩ": 5944,
      "ext": 5945,
      "ç²¹": 5946,
      "éĶĭ": 5947,
      "èĩªåĬ¨åĮĸ": 5948,
      "æ¶ĪåĮĸ": 5949,
      "æĶ¯ä»ĺ": 5950,
      "]ãĢģ": 5951,
      "æĻºæħ§": 5952,
      "çĲĨäºĭä¼ļ": 5953,
      "çĽ®çļĦæĺ¯": 5954,
      "è°ĥåĪ¶": 5955,
      "åįĬå¾Ħ": 5956,
      "ization": 5957,
      "88": 5958,
      "çĶµæľº": 5959,
      "çľĭä½ľ": 5960,
      "ä»£çĲĨ": 5961,
      "åįĵ": 5962,
      "éĿĻèĦī": 5963,
      "å¤įåĲĪæĿĲæĸĻ": 5964,
      "æĹ¶ç©º": 5965,
      "ç«ĸ": 5966,
      "ä¹¦ç±į": 5967,
      "ism": 5968,
      "æĢ¥æĢ§": 5969,
      "åıĶ": 5970,
      "è´·": 5971,
      "ert": 5972,
      "çģµæķı": 5973,
      "echn": 5974,
      "æ²¼": 5975,
      "åİĨä»£": 5976,
      "èİ·å¾ĹäºĨ": 5977,
      "çĥŃéĩı": 5978,
      "Ġco": 5979,
      "PS": 5980,
      "æº¢": 5981,
      "å¾ĹåĲį": 5982,
      "æĪĲåŀĭ": 5983,
      "åŃĹæ¯į": 5984,
      "åħ«å¹´": 5985,
      "å»ĵ": 5986,
      "120": 5987,
      "å±ĢéĻĲ": 5988,
      "ä¸Ńæ¯Ĵ": 5989,
      "ä¹ĭå¤Ħ": 5990,
      "åĤ¨åŃĺ": 5991,
      "æģĴæĺŁ": 5992,
      "åĮħè£ħ": 5993,
      "åĸī": 5994,
      "ä¸ĵèĳĹ": 5995,
      "åīįèº«": 5996,
      "å®«å»·": 5997,
      "çİīç±³": 5998,
      "æĹ¥æĬ¥": 5999,
      "æĮĸæİĺ": 6000,
      "çĶ¨åľ°": 6001,
      "åĪĨæŀĲæĸ¹æ³ķ": 6002,
      "å¤±è´¥": 6003,
      "æľīåħ³çļĦ": 6004,
      "ç¦ıåĪ©": 6005,
      "ication": 6006,
      "ä»ĸäºº": 6007,
      "ä¸¤èĢħ": 6008,
      "å¥łå®ļäºĨ": 6009,
      "éĹ´éļĶ": 6010,
      "åĽ¢éĺŁ": 6011,
      "Ġmod": 6012,
      "ou": 6013,
      "ç§¯åĪĨ": 6014,
      "æĭĨ": 6015,
      "å½±åĵįçļĦ": 6016,
      "ä¿®å»º": 6017,
      "æĻ®åıĬ": 6018,
      "ä¿Ĺç§°": 6019,
      "åĿ¯": 6020,
      "è§Ħæł¼": 6021,
      "use": 6022,
      "è®¸åı¯": 6023,
      "ä¾Ŀæ³ķ": 6024,
      "ural": 6025,
      "Cl": 6026,
      "åħ¶ä½Ļ": 6027,
      "åįıå®ļ": 6028,
      "æ¡Īä¾ĭ": 6029,
      "ä½ľæĪĺ": 6030,
      "ci": 6031,
      "çŁ¿ä¸ļ": 6032,
      "çĪ¶æ¯į": 6033,
      "è¥¿æ±ī": 6034,
      "åĿİ": 6035,
      "å¹´è½»": 6036,
      "åĲĪæ³ķ": 6037,
      "èį¯åĵģ": 6038,
      "åĭĭ": 6039,
      "çĨĬ": 6040,
      "ä¼łåĬ¨": 6041,
      "mu": 6042,
      "rt": 6043,
      "èĶ½": 6044,
      "åĨ°å·Ŀ": 6045,
      "ç³»ç»ŁåĴĮ": 6046,
      "çĽĹ": 6047,
      "åı²ä¸Ĭ": 6048,
      "è´Ńä¹°": 6049,
      "æĢ§åĪ«": 6050,
      "æł¼å¼ı": 6051,
      "ç²®é£Ł": 6052,
      "æľīå®³": 6053,
      "çĦ°": 6054,
      "Ġdis": 6055,
      "æĶ¿åħļ": 6056,
      "èĦ¾": 6057,
      "1944": 6058,
      "å¯¹è±¡çļĦ": 6059,
      "æī©å¼ł": 6060,
      "æķ£æĸĩ": 6061,
      "æµ·åŁŁ": 6062,
      "æĢĿèĢĥ": 6063,
      "æī¿è®¤": 6064,
      "1923": 6065,
      "æ°¨åŁºéħ¸": 6066,
      "çĶ¨ä½ľ": 6067,
      "Ġpol": 6068,
      "æ¶Į": 6069,
      "å§Ķä¼ļ": 6070,
      "éģ£": 6071,
      "âħł": 6072,
      "åıĳçİ°çļĦ": 6073,
      "1922": 6074,
      "æªĲ": 6075,
      "åĽĽä¸ª": 6076,
      "ç±»çļĦ": 6077,
      "æĬ½æł·": 6078,
      "ä¸Ĭæ¸¸": 6079,
      "Ġè®¡ç®Ĺæľº": 6080,
      "æĳĩ": 6081,
      "çĲĨè®ºåĴĮ": 6082,
      "èıĬ": 6083,
      "å¼ĢåĪĽ": 6084,
      "èľĤ": 6085,
      "æĸ¥": 6086,
      "æĸ¹ä½į": 6087,
      "ä»ĸè®¤ä¸º": 6088,
      "å¸ĥæĭī": 6089,
      "åĪĨæŀĲåĴĮ": 6090,
      "GB": 6091,
      "é»ĳé¾Ļæ±Ł": 6092,
      "çŃīéĹ®é¢ĺ": 6093,
      "ich": 6094,
      "äºĮçº§": 6095,
      "åı²æĸĻ": 6096,
      "ä»·åĢ¼çļĦ": 6097,
      "67": 6098,
      "åĽ½å¤ĸ": 6099,
      "å¼ºåĪ¶": 6100,
      "çĽ²": 6101,
      "å¤¸": 6102,
      "å¹¶å°Ĩ": 6103,
      "å¤©ä¸»æķĻ": 6104,
      "åĩºçİ°åľ¨": 6105,
      "éĻ¶åĻ¨": 6106,
      "æıĲé«ĺäºĨ": 6107,
      "å¯¹åºĶçļĦ": 6108,
      "98": 6109,
      "1943": 6110,
      "æ½ĺ": 6111,
      "å¹¿æ³ĽåºĶçĶ¨": 6112,
      "åĸľåī§": 6113,
      "æľ¬ç§ĳ": 6114,
      "å®¹åĻ¨": 6115,
      "æ¶Īå¤±": 6116,
      "åıĳèµ·": 6117,
      "çªģåıĺ": 6118,
      "éĶ»": 6119,
      "åŃ¦åĴĮ": 6120,
      "å®¡æŁ¥": 6121,
      "Ġres": 6122,
      "åĪ¶åĨ·": 6123,
      "åĽŀæĹı": 6124,
      "ç½®äºİ": 6125,
      "éĶħçĤī": 6126,
      "ao": 6127,
      "ÂłĊ": 6128,
      "æ²¸": 6129,
      "ice": 6130,
      "åıĻè¿°": 6131,
      "ae": 6132,
      "å§»": 6133,
      "åı¯åľ¨": 6134,
      "ä»£è¡¨ä½ľ": 6135,
      "ç¿ģ": 6136,
      "çĳŁ": 6137,
      "çł´ç¢İ": 6138,
      "çļĦæĢ§è´¨": 6139,
      "çļĦæł¸å¿ĥ": 6140,
      "silon": 6141,
      "çļĦåĽ½å®¶": 6142,
      "è¥¿å®ī": 6143,
      "ĠChina": 6144,
      "58": 6145,
      "éĿ¢ä¸´": 6146,
      "å¯Ĩå°ģ": 6147,
      "åıĳè¡¨äºĨ": 6148,
      "æĢ§çĬ¶": 6149,
      "åı¦ä¸Ģä¸ª": 6150,
      "æĺŁç³»": 6151,
      "æĪĴ": 6152,
      "ach": 6153,
      "ij": 6154,
      "æĦıåĳ³": 6155,
      "âĢĺ": 6156,
      "éĩĮæĸ¯": 6157,
      "CD": 6158,
      "æĢ§æł¼": 6159,
      "èµ·åĪ°": 6160,
      "éĨĴ": 6161,
      "é©¬åħĭæĢĿä¸»ä¹ī": 6162,
      "æł¼å±Ģ": 6163,
      "åĢ¼çļĦ": 6164,
      "è¿Ľåı£": 6165,
      "äººç¾¤": 6166,
      "ãĢĭï¼ī": 6167,
      "ä¸Ĭéĥ¨": 6168,
      "çľŁèıĮ": 6169,
      "åľ°å¤Ħ": 6170,
      "å¹³åĿĩå¹´éĻįæ°´éĩı": 6171,
      "åĬ£": 6172,
      "Ġcomp": 6173,
      "è¯ı": 6174,
      "åĲįå½ķ": 6175,
      "å¤©çº¿": 6176,
      "èĩªçĦ¶ç§ĳåŃ¦": 6177,
      "åľ°åĪ©": 6178,
      "å§ĭç»Ī": 6179,
      "æĺ¯ä»İ": 6180,
      "éĴĽ": 6181,
      "ä¸ĩå¹³æĸ¹åįĥç±³": 6182,
      "è¡¨éĿ¢çļĦ": 6183,
      "æ´ªæ°´": 6184,
      "åľ¨ä¸įåĲĮ": 6185,
      "ä¼łå¥ĩ": 6186,
      "å¨ģå°Ķ": 6187,
      "æ·ĭå·´": 6188,
      "å±±æ°´": 6189,
      "è¿ĺåı¯ä»¥": 6190,
      "åİĨä»»": 6191,
      "æ³¢åĬ¨": 6192,
      "æĿĤè´¨": 6193,
      "çļĦç»ıæµİ": 6194,
      "åĽłåħ¶": 6195,
      "å¹¿æ³ĽåºĶçĶ¨äºİ": 6196,
      "æ¨ªåĲĳ": 6197,
      "æŀ¯": 6198,
      "äººæł¼": 6199,
      "èĳĹå½ķ": 6200,
      "ç¡®è®¤": 6201,
      "Ġtrans": 6202,
      "èī²è°±": 6203,
      "æĲ¬": 6204,
      "ä¸ľæ±ī": 6205,
      "å¥³åŃĲ": 6206,
      "æĳĺ": 6207,
      "ä¹¦åĨĻ": 6208,
      "å·¥ç¨ĭçĥŃ": 6209,
      "é©¬æĭī": 6210,
      "${": 6211,
      "éĶĲ": 6212,
      "çĶµå½±èĬĤ": 6213,
      "æ¤İ": 6214,
      "ä»ªå¼ı": 6215,
      "éĢĿ": 6216,
      "æĪĲä¹¦": 6217,
      "Ġ190": 6218,
      "æ¡©": 6219,
      "åĲĮæĹ¶ä¹Ł": 6220,
      "ç¦»æķ£": 6221,
      "æŃ¦æ±ī": 6222,
      "è¾Ĭ": 6223,
      "åı¦ä¸Ģç§į": 6224,
      "ç»¼åĲĪæĢ§": 6225,
      "å´ĸ": 6226,
      "éĢļé£İ": 6227,
      "åĨħå¤ĸ": 6228,
      "åĲīæŀĹ": 6229,
      "çļĦèĥ½éĩı": 6230,
      "æ³ķçŃī": 6231,
      "ä¾¦": 6232,
      "æ¸łéģĵ": 6233,
      "è¯ķåĽ¾": 6234,
      "beta": 6235,
      "åĪ»æľ¬": 6236,
      "ä»¥ä¾¿": 6237,
      "åīįå¾Ģ": 6238,
      "è¡Ķ": 6239,
      "èħ¾": 6240,
      "1921": 6241,
      "åħĦå¼Ł": 6242,
      "éĴ¦": 6243,
      "åĽ½åĨħå¤ĸ": 6244,
      "åĴĮç®¡çĲĨ": 6245,
      "ä¸Ĭå¸Ŀ": 6246,
      "ord": 6247,
      "ä¸įåıĹ": 6248,
      "æļ´éľ²": 6249,
      "56": 6250,
      "è¥¿æ´ĭ": 6251,
      "æĥ¯æĢ§": 6252,
      "rad": 6253,
      "åı¦æľī": 6254,
      "Ġç»ıæµİåŃ¦": 6255,
      "èĪĨ": 6256,
      "å®ŀè´¨": 6257,
      "duct": 6258,
      "ä¼ģä¸ļçļĦ": 6259,
      "é¼ĵåĬ±": 6260,
      "åŀĦ": 6261,
      "å·²æĪĲä¸º": 6262,
      "å¥¥åľ°åĪ©": 6263,
      "}=": 6264,
      "æ¯ĴæĢ§": 6265,
      "éĥ½ä¼ļ": 6266,
      "æ»¤æ³¢": 6267,
      "å½ĵäºĭ": 6268,
      "æ°¨éħ¸": 6269,
      "çľł": 6270,
      "ä¿¡æģ¯ç³»ç»Ł": 6271,
      "é¢ĦæĬ¥": 6272,
      "æ¬¡å¹´": 6273,
      "äºĮç»´": 6274,
      "çĪ±åĽ½": 6275,
      "å®¢æĪ·": 6276,
      "æĤī": 6277,
      "å±ĳ": 6278,
      "çī©çĲĨåıĬ": 6279,
      "åİĦ": 6280,
      "ä»£è¡¨æĢ§": 6281,
      "raph": 6282,
      "ç½ĳç«Ļ": 6283,
      "åĬ¨åĬĽå·¥ç¨ĭ": 6284,
      "96": 6285,
      "æĥĬ": 6286,
      "èĹ¤": 6287,
      "rom": 6288,
      "å¥´éļ¶": 6289,
      "Ð¾": 6290,
      "çķª": 6291,
      "é¢Ħç®Ĺ": 6292,
      "å¨±ä¹Ĳ": 6293,
      "çī¹å¾ģçļĦ": 6294,
      "å°ıç»Ħ": 6295,
      "æī£": 6296,
      "èĮĤ": 6297,
      "åı¯éĢļè¿ĩ": 6298,
      "ç¬¬åįģ": 6299,
      "ä¸ºä¸»çļĦ": 6300,
      "éĴ©": 6301,
      "æ¯ıä¸Ģ": 6302,
      "åįłæľī": 6303,
      "æķĻç§ĳ": 6304,
      "ç²īæľ«": 6305,
      "78": 6306,
      "çłĶç©¶çĶŁ": 6307,
      "æĮ¡": 6308,
      "å±±åĮº": 6309,
      "å¤§èĩ£": 6310,
      "åŀ«": 6311,
      "çī¹æ®ĬçļĦ": 6312,
      "çŃīå¤ļ": 6313,
      "çļĦåıĳçĶŁ": 6314,
      "äºĮæ°§åĮĸç¢³": 6315,
      "Ġk": 6316,
      "åľ¨çº¿": 6317,
      "åħĭæĭī": 6318,
      "åĵģçīĮ": 6319,
      "}}$": 6320,
      "ä¼¤å®³": 6321,
      "åĵ¥ä¼¦": 6322,
      "uan": 6323,
      "æĪĲå½¢": 6324,
      "ç¡«éħ¸": 6325,
      "é²į": 6326,
      "æīĢå¤ĦæĹ¶ä»£": 6327,
      "æĸ¯çļĦ": 6328,
      "åĬ¨çĶ»": 6329,
      "æµĭäºķ": 6330,
      "éĶ°": 6331,
      "Fe": 6332,
      "æįķæįŀ": 6333,
      "è¿Ĳæ²³": 6334,
      "åī§ä½ľå®¶": 6335,
      "èľ¡": 6336,
      "æĿŃå·ŀ": 6337,
      "åľ°çĲĨä½įç½®": 6338,
      "æĿĲæĸĻç§ĳåŃ¦ä¸İå·¥ç¨ĭ": 6339,
      "ä½ıå®ħ": 6340,
      "çļĦä¸Ģéĥ¨åĪĨ": 6341,
      "æķ°åŃĹåĮĸ": 6342,
      "åıĳæĢ§": 6343,
      "åĲİä¸ĸ": 6344,
      "ç¼Ĩ": 6345,
      "SS": 6346,
      "å½Ŀ": 6347,
      "ç¬¬å®ī": 6348,
      "æĹ¶åĪ»": 6349,
      "ç»Łè®¡åŃ¦": 6350,
      "å»ºæ¨¡": 6351,
      "ork": 6352,
      "åį°ç¬¬å®ī": 6353,
      "ç®¡è¾ĸ": 6354,
      "ä¼ĺåħĪ": 6355,
      "ç§įæĹı": 6356,
      "æĹ¶éĹ´çļĦ": 6357,
      "å°±ä¸ļ": 6358,
      "æ¤įçī©çļĦ": 6359,
      "åįłé¢Ĩ": 6360,
      "èĶ¡": 6361,
      "ä¸įè¿ĩ": 6362,
      "åį³ä¸º": 6363,
      "ä¸Ńå±±": 6364,
      "Ġde": 6365,
      "æľīæķĪåľ°": 6366,
      "rho": 6367,
      "è·ĳ": 6368,
      "å¼ķåĬĽ": 6369,
      "åı¯èĥ½æĺ¯": 6370,
      "æ¶²åİĭ": 6371,
      "èĢĥè¯ķ": 6372,
      "}_": 6373,
      "çļĦæ´»åĬ¨": 6374,
      "æľĢå¤ļ": 6375,
      "ä¾Ŀæ¬¡": 6376,
      "ruct": 6377,
      "å§ĳ": 6378,
      "ä¸Ī": 6379,
      "2021": 6380,
      "å¯Įæľī": 6381,
      "åĩ¿": 6382,
      "ç»Ħå»º": 6383,
      "é¹¤": 6384,
      "å£¶": 6385,
      "åĶĩ": 6386,
      "æ¶Īéĺ²": 6387,
      "æ¡¥æ¢ģ": 6388,
      "çĭŃä¹ī": 6389,
      "å¹¶å¯¹": 6390,
      "èĪ°": 6391,
      "å¤«æĸ¯åŁº": 6392,
      "æ¶µçĽĸ": 6393,
      "Ġå·¥ç¨ĭçĥŃ": 6394,
      "éĤ£äºĽ": 6395,
      "epsilon": 6396,
      "éĴ»äºķ": 6397,
      "çī©çĲĨåıĬåĬ¨åĬĽå·¥ç¨ĭ": 6398,
      "Ġå·¥ç¨ĭçĥŃçī©çĲĨåıĬåĬ¨åĬĽå·¥ç¨ĭ": 6399,
      "åīįçļĦ": 6400,
      "å°ļä¹¦": 6401,
      "yl": 6402,
      "åĢ¡å¯¼": 6403,
      "ä¼ĺèī¯": 6404,
      "æĹ¶éĹ´åĨħ": 6405,
      "èĹıä¹¦": 6406,
      "åıĸå¾ĹäºĨ": 6407,
      "æĭ³": 6408,
      "å¤ıåŃ£": 6409,
      "åıĽ": 6410,
      "åı¯ä»¥æĺ¯": 6411,
      "å¢ŀåĬłäºĨ": 6412,
      "æł¸ç´ł": 6413,
      "åĩłç§į": 6414,
      "Ð°": 6415,
      "ä½ľåĩº": 6416,
      "åĿĩè¡¡": 6417,
      "æĸŃå±Ĥ": 6418,
      "æİ¨çĲĨ": 6419,
      "ĠAn": 6420,
      "åĲŀ": 6421,
      "é¡¾éĹ®": 6422,
      "è§Ħå®ļäºĨ": 6423,
      "ãĢĭï¼īãĢĤ": 6424,
      "çħ§å°Ħ": 6425,
      "åįłåľ°éĿ¢ç§¯": 6426,
      "éģŃåĪ°": 6427,
      "Ġçī©çĲĨåŃ¦": 6428,
      "åĴı": 6429,
      "èĬĤå¥ı": 6430,
      "éĢīæĭ©æĢ§": 6431,
      "æ¹¿æ¶¦": 6432,
      "ä¹ĭä½ľ": 6433,
      "åħ·ä½ĵçļĦ": 6434,
      "åĴĮè°Ĳ": 6435,
      "åĲĪéĢĤ": 6436,
      "å§Ķæīĺ": 6437,
      "57": 6438,
      "å¯¼çĶµ": 6439,
      "æĺĵäºİ": 6440,
      "æĥħå½¢": 6441,
      "åħ·æľīéĩįè¦ģ": 6442,
      "æĿĥå¨ģ": 6443,
      "å®īåħ¨æĢ§": 6444,
      "Ġè®¡ç®Ĺæľºç§ĳåŃ¦æĬĢæľ¯": 6445,
      "å¹´åĴĮ": 6446,
      "èĳĽ": 6447,
      "éĥ½å¸Ĥ": 6448,
      "èĩªè¡Į": 6449,
      "çļĦä½įç½®": 6450,
      "ä¸Ńåı¶": 6451,
      "æĬ«": 6452,
      "èĥ½åĬĽçļĦ": 6453,
      "ä»ĳ": 6454,
      "é£İæĻ¯åĲįèĥľ": 6455,
      "åįĪ": 6456,
      "æ±¡æ°´": 6457,
      "å¤©ä¸ĭ": 6458,
      "æ³¨åĨĮ": 6459,
      "éĢīçĶ¨": 6460,
      "ress": 6461,
      "{{\\": 6462,
      "åŃķ": 6463,
      "ä¹¦åºĹ": 6464,
      "ç¾İçļĦ": 6465,
      "Si": 6466,
      "èĬŃèķ¾": 6467,
      "èµĲ": 6468,
      "Ġph": 6469,
      "åĽ½æľī": 6470,
      "åĳĺå·¥": 6471,
      "ç§ĳåŃ¦çłĶç©¶": 6472,
      "è¡¡éĩı": 6473,
      "è¯ģåĪ¸": 6474,
      "å®ļåĲĳ": 6475,
      "å¤ĸçķĮ": 6476,
      ".-": 6477,
      "åħīçļĦ": 6478,
      "æĥħå¢ĥ": 6479,
      "æĹıèĩªæ²»": 6480,
      "æ¦Ĥæĭ¬": 6481,
      "97": 6482,
      "æľºåĬ¨": 6483,
      "è·ĭ": 6484,
      "çĭ®": 6485,
      "åıĳåĩº": 6486,
      "å¾®åĪĨ": 6487,
      "çħĮ": 6488,
      "åŃĶéļĻ": 6489,
      "äºĪä»¥": 6490,
      "åıįå¤į": 6491,
      "å¤©æ°Ķ": 6492,
      "èģļéĽĨ": 6493,
      "è°ĥåº¦": 6494,
      "éĩĮäºļ": 6495,
      "})": 6496,
      "çļĦåĪĽä½ľ": 6497,
      "åľ¨ä¸Ģä¸ª": 6498,
      "ä½ļ": 6499,
      "é©¬æĿ¥": 6500,
      "æ¨¡åŀĭçļĦ": 6501,
      "ä¼¦çĲĨåŃ¦": 6502,
      "èĶ¬": 6503,
      "åīĸéĿ¢": 6504,
      "64": 6505,
      "æĭĴç»Ŀ": 6506,
      "åŁ¹èĤ²": 6507,
      "æŀ¢çº½": 6508,
      "çļĦåİŁåĪĻ": 6509,
      "éĺ»åĬĽ": 6510,
      "ĠæĿĲæĸĻç§ĳåŃ¦ä¸İå·¥ç¨ĭ": 6511,
      "èµĶ": 6512,
      "æĹ¢æľī": 6513,
      "å©Ĩ": 6514,
      "æľīåºı": 6515,
      "æħķ": 6516,
      "å¹ħåº¦": 6517,
      "æĬĹåİŁ": 6518,
      "èµĭäºĪ": 6519,
      "éķį": 6520,
      "åĨľäº§åĵģ": 6521,
      "éħ¬": 6522,
      "æŃ£åľ¨": 6523,
      "ä½ĵç³»çļĦ": 6524,
      "æ±īåŃĹ": 6525,
      "æĲľç´¢": 6526,
      "åĮºåĴĮ": 6527,
      "çĸ²åĬ³": 6528,
      "è¿ĺåĮħæĭ¬": 6529,
      "ç¡®å®ļçļĦ": 6530,
      "æµģæ´¾": 6531,
      "åį¡å°Ķ": 6532,
      "åĽ½æ°ĳåħļ": 6533,
      "ä¸Ģæĺ¯": 6534,
      "çķ¸": 6535,
      "è®ºè¯ģ": 6536,
      "å²Ľå±¿": 6537,
      "åĽ½éĺ²": 6538,
      "åįķä¸ª": 6539,
      "hi": 6540,
      "å¹¿åľº": 6541,
      "æīĢæľīçļĦ": 6542,
      "å»¶ç»Ń": 6543,
      "åĴĮæĬĢæľ¯": 6544,
      "æ²¿å²¸": 6545,
      "å¼ķè¿Ľ": 6546,
      "pi": 6547,
      "ç®ĢåĮĸ": 6548,
      "ä¸¤éĥ¨åĪĨ": 6549,
      "åĪĽä½ľäºĨ": 6550,
      "è±«": 6551,
      "åĭ¾": 6552,
      "é¡¹çĽ®çļĦ": 6553,
      "é©¾é©¶": 6554,
      "éĩİçĶŁåĬ¨çī©": 6555,
      "éĿ¢å¯¹": 6556,
      "1920": 6557,
      "å·¥ä»¶": 6558,
      "çļĦåħ³éĶ®": 6559,
      "çĮ´": 6560,
      "æ²¥": 6561,
      "æĮ¯èį¡": 6562,
      "ai": 6563,
      "çļĦè¿ĲåĬ¨": 6564,
      "å§Ĳ": 6565,
      "å¾Īå¤§çļĦ": 6566,
      "Ġy": 6567,
      "å®ŀçī©": 6568,
      "éĨī": 6569,
      "èĦĨ": 6570,
      "åį§": 6571,
      "Ġto": 6572,
      "èł": 6573,
      "è½®æľº": 6574,
      "æİī": 6575,
      "sl": 6576,
      "ä¹¦è®°": 6577,
      "è®¾å¤ĩçļĦ": 6578,
      "çĩĥæ°Ķ": 6579,
      "ue": 6580,
      "æĸĩä¹¦": 6581,
      "æ°´è´¨": 6582,
      "å°½åı¯èĥ½": 6583,
      "åı¤èĢģ": 6584,
      "600": 6585,
      "PC": 6586,
      "æİº": 6587,
      "åī§ä½ľ": 6588,
      "çĭĤ": 6589,
      "äº¨": 6590,
      "åĨħæ¶µ": 6591,
      "å¤§çº¦": 6592,
      "åĩºæĿ¥çļĦ": 6593,
      "çŁ³èĭ±": 6594,
      "ä¾Ľæ°´": 6595,
      "èĴĭ": 6596,
      "ÂłĠÂłĠ": 6597,
      "çļĦä¼łç»Ł": 6598,
      "çŃīèģĮ": 6599,
      "æĺ¯ä¸į": 6600,
      "éĻĨåľ°": 6601,
      "æĬĢæľ¯çļĦåıĳå±ķ": 6602,
      "æĦıä¸º": 6603,
      "å°¼è¥¿äºļ": 6604,
      "çī©åĵģ": 6605,
      "çļĦç®¡çĲĨ": 6606,
      "èĩŃ": 6607,
      "åĬ¨è¯į": 6608,
      "éĿĻæĢģ": 6609,
      "åħ¶æ¬¡": 6610,
      "ç¥Ńç¥Ģ": 6611,
      "åºŀ": 6612,
      "æĹº": 6613,
      "è¿Ľå±ķ": 6614,
      "ä¸»äººåħ¬": 6615,
      "æŁĵèī²ä½ĵ": 6616,
      "âĪ¶": 6617,
      "åĪĨçº§": 6618,
      "ç¥Ŀ": 6619,
      "çİ°ä»£åĮĸ": 6620,
      "æ²īæ·Ģ": 6621,
      "æ¹¿åº¦": 6622,
      "éķ¿çº¦": 6623,
      "æīĳ": 6624,
      "å¤Ħç½®": 6625,
      "æĪĲå¹´": 6626,
      "çļĦè´¨éĩı": 6627,
      "å®ļæĢ§": 6628,
      "å¥Ķ": 6629,
      "èīºæľ¯çļĦ": 6630,
      "æĮĳæĪĺ": 6631,
      "åıĳçļĦ": 6632,
      "æĻ¯åĮº": 6633,
      "éĵģçŁ¿": 6634,
      "æī°åĬ¨": 6635,
      "åį³ä½¿": 6636,
      "å¸ĥé²ģ": 6637,
      "æĤ²åī§": 6638,
      "èħ¿": 6639,
      "å·¥åķĨ": 6640,
      "æ²Ļæ¼ł": 6641,
      "æĽ´å¤ļçļĦ": 6642,
      "çī²": 6643,
      "çººç»ĩç§ĳåŃ¦ä¸İå·¥ç¨ĭ": 6644,
      "æ°´ä½į": 6645,
      "æ±Łèĭıçľģ": 6646,
      "ä¸Ģæ®µ": 6647,
      "ä¼ĬæľĹ": 6648,
      "æĻĵ": 6649,
      "å¸ĥå°Ķ": 6650,
      "æĬĹä½ĵ": 6651,
      "åŃ£é£İæ°ĶåĢĻ": 6652,
      "å¹´åºķ": 6653,
      "å°ıéº¦": 6654,
      "}_{": 6655,
      "çļĦæĥħåĨµ": 6656,
      "èĢĮæĪĲçļĦ": 6657,
      "çĥŃåĬĽåŃ¦": 6658,
      "åĽ½å®¶åĴĮ": 6659,
      "æĢ»çĲĨ": 6660,
      "åĨľçĶ°": 6661,
      "å¹²é¢Ħ": 6662,
      "åī©ä½Ļ": 6663,
      "é©¬å°Ķ": 6664,
      "æī¿è½½": 6665,
      "éĻĦåĬł": 6666,
      "æµªæ¼«": 6667,
      "ç¨ĭåº¦çļĦ": 6668,
      "ç¥ł": 6669,
      "æ£±": 6670,
      "éľĢè¦ģçļĦ": 6671,
      "çļĦéĩįè¦ģç»ĦæĪĲéĥ¨åĪĨ": 6672,
      "å¸¸åĬ¡": 6673,
      "æ¨¡ç³Ĭ": 6674,
      "æĿ¡ä»¶çļĦ": 6675,
      "ä½ĨçĶ±äºİ": 6676,
      "åĨ¬åŃ£": 6677,
      "Ġ\\\\": 6678,
      "äº«æľī": 6679,
      "ä¼łåªĴ": 6680,
      "å·¥åºı": 6681,
      "æ¢Ń": 6682,
      "ä¿¡åı·çļĦ": 6683,
      "çļĦæĸĩåĮĸ": 6684,
      "æĸ¹æ³ķçļĦ": 6685,
      "æįĲ": 6686,
      "ä¹ĭä¸Ĭ": 6687,
      "éħļ": 6688,
      "åģļäºĨ": 6689,
      "72": 6690,
      "åĪĨåŃĲçļĦ": 6691,
      "æİ¥åı£": 6692,
      "å©´": 6693,
      "å°ıåŃ¦": 6694,
      "åı²åŃ¦": 6695,
      "ä¾µèļĢ": 6696,
      "Ġçººç»ĩç§ĳåŃ¦ä¸İå·¥ç¨ĭ": 6697,
      "å¼Ģåħ³": 6698,
      "amma": 6699,
      "ç¬ĳ": 6700,
      "åıĺå¼Ĥ": 6701,
      "å´©": 6702,
      "æħ¢æĢ§": 6703,
      "äº¤å¾Ģ": 6704,
      "varepsilon": 6705,
      "çĢ": 6706,
      "åĵĢ": 6707,
      "æĶ¹èī¯": 6708,
      "æľŁçļĦ": 6709,
      "å®ĺæĸ¹": 6710,
      "omega": 6711,
      "èµ·æĿ¥çļĦ": 6712,
      "enc": 6713,
      "Ġå¿ĥçĲĨåŃ¦": 6714,
      "çº³åħ¥": 6715,
      "è¯Ńè¨ĢçļĦ": 6716,
      "Ġac": 6717,
      "ç®ĢåįķçļĦ": 6718,
      "1919": 6719,
      "æĹ¶åĢĻ": 6720,
      "å®¶çļĦ": 6721,
      "è´¢åĬ¡": 6722,
      "åĩºçīĪçļĦ": 6723,
      "æķĻèĤ²åŃ¦": 6724,
      "ä¸İç¤¾ä¼ļ": 6725,
      "æµģéĢļ": 6726,
      "ä¹Ŀå¹´": 6727,
      "ä¸Ģä»£": 6728,
      "å»ºæľī": 6729,
      "çº¦ç¿°": 6730,
      "ä½ľåĵģçļĦ": 6731,
      "å½¼æŃ¤": 6732,
      "èĢĮä¸įæĺ¯": 6733,
      "å¤įåĪ¶": 6734,
      "ark": 6735,
      "çłĶç©¶ä¸Ńå¿ĥ": 6736,
      "ç»ĨèĥŀçļĦ": 6737,
      "ish": 6738,
      "ä¿ĥè¿ĽäºĨ": 6739,
      "çĽ´æµģ": 6740,
      "èľĢ": 6741,
      "æķ°çĽ®": 6742,
      "åĮł": 6743,
      "æľĪåĪĬ": 6744,
      "ä¸įåĲĮäºİ": 6745,
      "ä»ĸä»¬çļĦ": 6746,
      "åĵĪå°Ķ": 6747,
      "å»ºç«ĭçļĦ": 6748,
      "ution": 6749,
      "æĭĵå±ķ": 6750,
      "ä¸Ļçĥ¯": 6751,
      "æł¡æŃ£": 6752,
      "ä¼ļéķ¿": 6753,
      "å»¶éķ¿": 6754,
      "äººæ°ĳæĶ¿åºľé©»": 6755,
      "ãĢĭ(": 6756,
      "å¾Īå°ĳ": 6757,
      "åģıæĮ¯": 6758,
      "åºŁçī©": 6759,
      "'s": 6760,
      "è¦ģæ±ĤçļĦ": 6761,
      "å¯¹è¯Ŀ": 6762,
      "å°ļæľª": 6763,
      "å·¨å¤§çļĦ": 6764,
      "Ġ&": 6765,
      "ç¥ŀç»ıåħĥ": 6766,
      "åŃĺåľ¨çĿĢ": 6767,
      "åĵ¥ä¼¦æ¯Ķäºļ": 6768,
      "åĪĹè½¦": 6769,
      "ä¸ĩäºº": 6770,
      "çıįè´µ": 6771,
      "ä¹ĥèĩ³": 6772,
      "çī¹çĤ¹æĺ¯": 6773,
      "ä¼łæŁĵ": 6774,
      "æĢĴ": 6775,
      "åŀĭçļĦ": 6776,
      "ä¸Ńä¸ĸçºª": 6777,
      "æ±ª": 6778,
      "çľģçº§": 6779,
      "ä¸ŃçŃī": 6780,
      "ok": 6781,
      "æĬ¥åĪĬ": 6782,
      "62": 6783,
      "æĭĮ": 6784,
      "åħ¶ä¸ŃçļĦ": 6785,
      "åħ»åĪĨ": 6786,
      "ç»´äºļ": 6787,
      "æŃĮèĪŀ": 6788,
      "æĥ³è±¡": 6789,
      "çļĦèĩªçĦ¶": 6790,
      "åİĮ": 6791,
      "ç¾Ł": 6792,
      "ä¸ĩåİĨ": 6793,
      "èĨı": 6794,
      "æľīäºĨ": 6795,
      "éĽĩ": 6796,
      "éĥ¨èĲ½": 6797,
      "ç²¤": 6798,
      "ä¸ªåĪ«": 6799,
      "æĺ¾å¾®éķľ": 6800,
      "åĪ¶çº¦": 6801,
      "åīĤçļĦ": 6802,
      "åı¯è§Ĩ": 6803,
      "è¤¶": 6804,
      "éĤĵ": 6805,
      "å§¿æĢģ": 6806,
      "éĻįæ°´": 6807,
      "èµ·æºĲäºİ": 6808,
      "æ²³éģĵ": 6809,
      "çıĬ": 6810,
      "åĨľä¸ļçĶŁäº§": 6811,
      "æ²īéĻį": 6812,
      "Ġar": 6813,
      "çĶ·å¥³": 6814,
      "æ°¯åĮĸ": 6815,
      "åĨħæľī": 6816,
      "åĬłå¿«": 6817,
      "æ¶¡è½®": 6818,
      "åĴ½": 6819,
      "å¹¿æ³ĽçļĦ": 6820,
      "çİ°å®ŀä¸»ä¹ī": 6821,
      "con": 6822,
      "ä¸įè¯¦": 6823,
      "æĢ»éĿ¢ç§¯": 6824,
      "çİ°æľī": 6825,
      "èĮħ": 6826,
      "ç²¾ç»Ĩ": 6827,
      "åĩıè½»": 6828,
      "çĮ«": 6829,
      "çĶµè§Ĩåī§": 6830,
      "æĿĤèįī": 6831,
      "è´º": 6832,
      "çĽ¸åıĺ": 6833,
      "èĪŁ": 6834,
      "å¸¦æĿ¥çļĦ": 6835,
      "æŀģä¸º": 6836,
      "åĨħå®¹åĮħæĭ¬": 6837,
      "çļ±": 6838,
      "æī¿åıĹ": 6839,
      "å½Ń": 6840,
      "hat": 6841,
      "Ðµ": 6842,
      "çİ¯ä¿Ŀ": 6843,
      "æĦŁåºĶ": 6844,
      "éĩĮçļĦ": 6845,
      "éģĹåŃĺ": 6846,
      "çĹħåıĺ": 6847,
      "åģļåĩºäºĨ": 6848,
      "åłª": 6849,
      "ç§ģäºº": 6850,
      "ä»¿çľŁ": 6851,
      "çļĦåŃĺåľ¨": 6852,
      "åħ¶ä¸»è¦ģ": 6853,
      "åĪĹä¸º": 6854,
      "è®²è¿°äºĨ": 6855,
      "æĹ¶ä»£çļĦ": 6856,
      "éĨļ": 6857,
      "ä¸įç¡®å®ļ": 6858,
      "æ°´æµģ": 6859,
      "åĪĽä½ľæĹ¶éĹ´": 6860,
      "SA": 6861,
      "è°¨": 6862,
      "Ġ2": 6863,
      "åĽ¢ç»ĵ": 6864,
      "æ¯ıä¸Ģä¸ª": 6865,
      "éĽ¶ä»¶": 6866,
      "erg": 6867,
      "ä¸ĩåĲ¨": 6868,
      "éºĵ": 6869,
      "çĦĬæİ¥": 6870,
      "çłĶç©¶ä¸Ń": 6871,
      "ç»Ļåĩº": 6872,
      "èµĦäº§éĺ¶çº§": 6873,
      "è¢«æµĭ": 6874,
      "çļĦä¸»": 6875,
      "èĤ²ç§į": 6876,
      "ĠCom": 6877,
      "ä¸ŃåĽ½çĶµå½±": 6878,
      "æĿĥçĽĬ": 6879,
      "cess": 6880,
      "ram": 6881,
      "çļĦéĿŀ": 6882,
      "ç»ĺåĪ¶": 6883,
      "å©ļå§»": 6884,
      "å¥ĸé¡¹": 6885,
      "å®ļä¹īä¸º": 6886,
      "52": 6887,
      "éĿ¢ä¸Ĭ": 6888,
      "åĲĪçĲĨçļĦ": 6889,
      "æķĻèĤ²éĥ¨": 6890,
      "77": 6891,
      "çĪĨçł´": 6892,
      "ä½¿ä¹ĭ": 6893,
      "çĽ®æłĩçļĦ": 6894,
      "Ġ_": 6895,
      "ï¼Ľ$\\": 6896,
      "åĴĮå¯¹": 6897,
      "çĹħå®³": 6898,
      "æľ¬ç½ª": 6899,
      "è¿½æº¯": 6900,
      "åħ¶åĲİ": 6901,
      "53": 6902,
      "ä¸ªæľĪ": 6903,
      "æ®ĸæ°ĳåľ°": 6904,
      "è¿Ľå£«": 6905,
      "æķĻèĤ²çļĦ": 6906,
      "åħĭæľį": 6907,
      "}^{": 6908,
      "æ³ķåħ°": 6909,
      "åıĺä¸º": 6910,
      "æ¢¨": 6911,
      "åĽ½éĻħä¸Ĭ": 6912,
      "Ġor": 6913,
      "åĵº": 6914,
      "åĻ¨çŃī": 6915,
      "è·¯çº¿": 6916,
      "éĽķåĪ»": 6917,
      "CH": 6918,
      "ç»ĵè®º": 6919,
      "åĪĨå¸ĥçļĦ": 6920,
      "ï¼ĪãĢĬ": 6921,
      "åģıå·®": 6922,
      "ä¸įæĺĵ": 6923,
      "è¯ŃçļĦ": 6924,
      "åįļçī©éĻ¢": 6925,
      "å¸ĸ": 6926,
      "èļķ": 6927,
      "ç§°ä¹ĭä¸º": 6928,
      "åŁİä¹¡è§ĦåĪĴ": 6929,
      "ç¡¼": 6930,
      "æŁĵæĸĻ": 6931,
      "äººåĬĽ": 6932,
      "å¼ıåĴĮ": 6933,
      "åıĺåĬ¨": 6934,
      "æĬĴæĥħ": 6935,
      "åĬłéĢŁåº¦": 6936,
      "æĢ»çĿ£": 6937,
      "çļĦçİ¯å¢ĥ": 6938,
      "è¯Ńè¨ĢåŃ¦": 6939,
      "åĴĮé«ĺ": 6940,
      "æīĢä½ľ": 6941,
      "é¾Ł": 6942,
      "å®ĹæķĻåŃ¦": 6943,
      "å¥¶": 6944,
      "æ²³åı£": 6945,
      "æĢ§ä¸İ": 6946,
      "èĢħåĴĮ": 6947,
      "é¸¿": 6948,
      "æķĻæĿĲ": 6949,
      "åİ»éĻ¤": 6950,
      "åŁºç¡Ģè®¾æĸ½": 6951,
      "é¤": 6952,
      "éĥ¨éĺŁ": 6953,
      "èĬ¬åħ°": 6954,
      "éĶĤ": 6955,
      "æ¤įçī©ä¿ĿæĬ¤": 6956,
      "ä»ªè¡¨": 6957,
      "Ġ16": 6958,
      "å··": 6959,
      "ä¹¦çĶ»": 6960,
      "æłĩå¿ĹçĿĢ": 6961,
      "èĲ¥éĶĢ": 6962,
      "aw": 6963,
      "æĶ¿åºľçļĦ": 6964,
      "æŃĮæĽ²": 6965,
      "åĪĳäºĭ": 6966,
      "èĭĶ": 6967,
      "åŁºéĥ¨": 6968,
      "ä¹Łå°±æĺ¯": 6969,
      "åłµ": 6970,
      "åĬ¨çī©çļĦ": 6971,
      "1912": 6972,
      "å°¼æĹ¥": 6973,
      "åĴĮæĸĩåĮĸ": 6974,
      "æ°´ç¨»": 6975,
      "ä¸īåĽ½": 6976,
      "Ġman": 6977,
      "}=\\": 6978,
      "æĬ±": 6979,
      "è´«åĽ°": 6980,
      "å°ĶçļĦ": 6981,
      "åĪĽå§ĭ": 6982,
      "æ¯ķä¸ļéĻ¢æł¡": 6983,
      "ç¼ĵæħ¢": 6984,
      "çºµåĲĳ": 6985,
      "å»ºæŀĦ": 6986,
      "å¦ĤæŃ¤": 6987,
      "çĲĥå½¢": 6988,
      "åıĸåĲĳ": 6989,
      "æĤł": 6990,
      "çŁ¢éĩı": 6991,
      "3000": 6992,
      "ä¸ĸçķĮçļĦ": 6993,
      "éħįå¥Ĺ": 6994,
      "æĢª": 6995,
      "æĬĵ": 6996,
      "åħ¨ç§°": 6997,
      "æ±ŁåįĹ": 6998,
      "å¾Īå¿«": 6999,
      "åħ¬åı¸çļĦ": 7000,
      "In": 7001,
      "æ³¢çļĦ": 7002,
      "ç§°åı·": 7003,
      "æĸ¹æ³ķåĴĮ": 7004,
      "æĶ¯éħį": 7005,
      "æĦıä¹īçļĦ": 7006,
      "èĥ½çº§": 7007,
      "äºĮèĢħ": 7008,
      "çªĿ": 7009,
      "èģļçĦ¦": 7010,
      "è¿ĺåı¯": 7011,
      "rat": 7012,
      "ray": 7013,
      "oci": 7014,
      "è½¬åıĺä¸º": 7015,
      "åĽĽåºĵ": 7016,
      "æ¢µ": 7017,
      "åįłæį®": 7018,
      "åĪĨæĪĲ": 7019,
      "è´¨åŃĲ": 7020,
      "æĦŁæĥħ": 7021,
      "trol": 7022,
      "åĢ¾æĸľ": 7023,
      "åĪ¶å®ļçļĦ": 7024,
      "æ°´åŁŁ": 7025,
      "çļĦéĥ¨åĪĨ": 7026,
      "éĴ¢çĲ´": 7027,
      "æ¿Ģæ´»": 7028,
      "æµĳ": 7029,
      "ç¼ĸå¯¼": 7030,
      "èĲ¨åħĭ": 7031,
      "63": 7032,
      "å¯¹æµģ": 7033,
      "æ°´å¹³çļĦ": 7034,
      "èİ·å¾ĹçļĦ": 7035,
      "æĹłåħ³": 7036,
      "éĵĥ": 7037,
      "æİĪæĿĥ": 7038,
      "éĴ¢éĵģ": 7039,
      "åłĨç§¯": 7040,
      "èĭį": 7041,
      "èĬ¦": 7042,
      "ç¡«åĮĸ": 7043,
      "æĤ¬æµ®": 7044,
      "ä¸ŃåĽ½åħ±äº§åħļ": 7045,
      "æ¬£": 7046,
      "åİŁèĳĹåĩºçīĪæĹ¶éĹ´": 7047,
      "åĴĮçłĶç©¶": 7048,
      "æ¨¡ä»¿": 7049,
      "çģ«çĦ°": 7050,
      "å·¢": 7051,
      "ä»¥å¤ĸ": 7052,
      "çļĦåľ°æĸ¹": 7053,
      "é¦ı": 7054,
      "æľĭ": 7055,
      "è½¬åŃĲ": 7056,
      "åįıåĬ©": 7057,
      "èįĨ": 7058,
      "æĲºå¸¦": 7059,
      "æĿĤäº¤": 7060,
      "ç¹ģèį£": 7061,
      "ç»Łä¸ĢçļĦ": 7062,
      "ä½ł": 7063,
      "æĸ¹éĴĪ": 7064,
      "ä¿ĥä½¿": 7065,
      "ä¸ĳ": 7066,
      "æ³¢æĸ¯": 7067,
      "ç»ıåİĨäºĨ": 7068,
      "éĽį": 7069,
      "æ²«": 7070,
      "ç°ĩ": 7071,
      "æ°ĳäºĭ": 7072,
      "éĢĤåºĶæĢ§": 7073,
      "æĶ¯æµģ": 7074,
      "ä»£è¡¨äººçī©": 7075,
      "æįŁèĢĹ": 7076,
      "èĲĥ": 7077,
      "çº§åĪ«": 7078,
      "è½°": 7079,
      "åŀĦæĸŃ": 7080,
      "çĿ¡": 7081,
      "äºīè®®": 7082,
      "éĿĴæµ·": 7083,
      "çĶµè§Ĩåı°": 7084,
      "éĦĤ": 7085,
      "ãĢĭï¼ļâĢľ": 7086,
      "éĢļè®¯": 7087,
      "æĶ¾çī§": 7088,
      "æĬ¢": 7089,
      "çĨĶçĤ¹": 7090,
      "æ¬¢è¿İ": 7091,
      "å®¶çķľ": 7092,
      "èĵ¬": 7093,
      "æŁ¥è¯¢": 7094,
      "æ°ĶåĢĻç±»åŀĭ": 7095,
      "ä¸ºåħ¶": 7096,
      "æ¶¯": 7097,
      "äºĮæĺ¯": 7098,
      "æĸ½åĬł": 7099,
      "æĹłçº¿çĶµ": 7100,
      "åĪ©æ¶¦": 7101,
      "ä¼łå¯¼": 7102,
      "iang": 7103,
      "text": 7104,
      "è¶ħå¯¼": 7105,
      "æ¶¦æ»ĳ": 7106,
      "çļĦåĪĨ": 7107,
      "å®ļçĲĨ": 7108,
      "å°Ŀè¯ķ": 7109,
      "ection": 7110,
      "åįĥçĵ¦": 7111,
      "éĺ²å¾¡": 7112,
      "æīĵåĩ»": 7113,
      "éĽĨä¸Ńåľ¨": 7114,
      "å¿§": 7115,
      "å¹¿å¤§": 7116,
      "å¤§æī¹": 7117,
      "se": 7118,
      "rop": 7119,
      "åĮĹäº¬å¤§åŃ¦": 7120,
      "èĳĹåĲįæĻ¯çĤ¹": 7121,
      "éĹ´éļĻ": 7122,
      "ç¦¾": 7123,
      "åºķéĥ¨": 7124,
      "ä¸ŃåĽ½æ¸ħä»£": 7125,
      "æŀģå¤§": 7126,
      ")\\": 7127,
      "ä¼łåħ¥": 7128,
      "åı¤å¸ĮèħĬ": 7129,
      "å¼ºçĥĪçļĦ": 7130,
      "ä¼łæī¿": 7131,
      "åıĳçĶŁåıĺåĮĸ": 7132,
      "æ¡£æ¡Īé¦Ĩ": 7133,
      "äº§åĩº": 7134,
      "ç¾İåĽ½çļĦ": 7135,
      "54": 7136,
      "å¹¶ä¸İ": 7137,
      "çłĶç©¶åĳĺ": 7138,
      "åıĪè¯ĳ": 7139,
      "åıĺéĿ©": 7140,
      "92": 7141,
      "ie": 7142,
      "åħ¬å¹³": 7143,
      "åŁİå¸Ĥè§ĦåĪĴ": 7144,
      "${\\": 7145,
      "Ġen": 7146,
      "æ¢³": 7147,
      "éģ®": 7148,
      "æł¸éħ¸": 7149,
      "èģĮåĬ¡": 7150,
      "æĹ©æľŁçļĦ": 7151,
      "å²ģæĹ¶": 7152,
      "è°ĪåĪ¤": 7153,
      "ä¹ĭä¸ĭ": 7154,
      "åľºçļĦ": 7155,
      "éħ¸æĢ§": 7156,
      "æ³°åĽ½": 7157,
      "éĩįç»Ħ": 7158,
      "è®½åĪº": 7159,
      "å®°": 7160,
      "åįİåĮĹ": 7161,
      "æ¯«åħĭ": 7162,
      "åĵºä¹³": 7163,
      "oh": 7164,
      "ç¬¼": 7165,
      "èĦ±ç¦»": 7166,
      "è£ķ": 7167,
      "æĬĹæĪĺ": 7168,
      "å±Ĭåħ¨åĽ½": 7169,
      "å¯¼åĲĳ": 7170,
      "èĩªçĦ¶çķĮ": 7171,
      "æĬ¼": 7172,
      "åĳ½è¿Ĳ": 7173,
      "å¹´èİ·å¾Ĺ": 7174,
      "äººæķ°": 7175,
      "ç©ºéĹ´çļĦ": 7176,
      "æĵįçºµ": 7177,
      "å½ĵæĹ¶çļĦ": 7178,
      "äºĶä»£": 7179,
      "ç¼ħçĶ¸": 7180,
      "æİ§åĪ¶çļĦ": 7181,
      "çª¦": 7182,
      "è¿Ļæł·çļĦ": 7183,
      "æ°´æ·±": 7184,
      "æľ«ç«¯": 7185,
      "é¢Ĩè¢ĸ": 7186,
      "æŃ¦è£ħ": 7187,
      "ä¸ºä¾ĭ": 7188,
      "æºĥ": 7189,
      "è£¸": 7190,
      "ãĢģâĢľ": 7191,
      "åıªè¦ģ": 7192,
      "æĪĲéķ¿": 7193,
      "ä¸Ńåįİäººæ°ĳåħ±åĴĮåĽ½æĪĲç«ĭåĲİ": 7194,
      "å®ļä¸º": 7195,
      "æ·¡æ°´": 7196,
      "é¤Ĳ": 7197,
      "ä½Ĩåħ¶": 7198,
      "ç¦»å¿ĥ": 7199,
      "æĭīåħĭ": 7200,
      "éŃĶ": 7201,
      "æľ¬ä½ĵ": 7202,
      "LE": 7203,
      "Ġå®ĹæķĻåŃ¦": 7204,
      "å²©ä½ĵ": 7205,
      "åĲĳéĩı": 7206,
      "æ¹į": 7207,
      "é£İæĻ¯åĲįèĥľåĮº": 7208,
      "SO": 7209,
      "ç»Ħç»ĩåĴĮ": 7210,
      "å§ļ": 7211,
      "è¢ĭ": 7212,
      "å¿ĥçĲĨåŃ¦å®¶": 7213,
      "æµĭç»ĺåŃ¦": 7214,
      "æ°´ä¸ĭ": 7215,
      "æ¿Ĵ": 7216,
      "Ġ0": 7217,
      "åħ¥éĢī": 7218,
      "ç®¡çĲĨåĴĮ": 7219,
      "eter": 7220,
      "ä¸¹éº¦": 7221,
      "æ²¥éĿĴ": 7222,
      "åºµ": 7223,
      "ç¼ł": 7224,
      "ç¦Ħ": 7225,
      "è´¨éĩıçļĦ": 7226,
      "ç²ª": 7227,
      "è½¬éĢŁ": 7228,
      "ä¸Ńèį¯": 7229,
      "è¯Ŀåī§": 7230,
      "çľĭåĪ°": 7231,
      "å¤ķ": 7232,
      "åº¦éĩı": 7233,
      "Ġelect": 7234,
      "äºĨå¯¹": 7235,
      "æľŁæľĽ": 7236,
      "æĪĲç«ĭåľ°çĤ¹": 7237,
      "åĵª": 7238,
      "ç²¾å¯Ĩ": 7239,
      "51": 7240,
      "åľŃ": 7241,
      "çļĦéľĢè¦ģ": 7242,
      "fer": 7243,
      "å¯¼èĩ´çļĦ": 7244,
      "è®¤åĲĮ": 7245,
      "éĺĪ": 7246,
      "ç½¢": 7247,
      "ä¿®é¥°": 7248,
      "æĪĲç»©": 7249,
      "æİĴåĩº": 7250,
      "åı¤åŁİ": 7251,
      "ä¸ĩå¹´": 7252,
      "å®ĥä»¬çļĦ": 7253,
      "æİ¨èįĲ": 7254,
      "ä¹¦å±Ģ": 7255,
      "ä¸ĺéĻµ": 7256,
      "è®²è¿°": 7257,
      "è¿¦": 7258,
      "ä½ľæĽ²å®¶": 7259,
      "åĬ¨éĩı": 7260,
      "ä¾ĽçĶµ": 7261,
      "ç½ĳæł¼": 7262,
      "éĶĪ": 7263,
      "sh": 7264,
      "åİŁæľī": 7265,
      "èªīä¸º": 7266,
      "ä¸Ģä¹¦": 7267,
      "è¯»ä¹¦": 7268,
      "æī®æ¼Ķ": 7269,
      "æĹ©åľ¨": 7270,
      "è¯Ĺæĸĩ": 7271,
      "ä½ıæĪ¿": 7272,
      "æıŃéľ²": 7273,
      "é¢Į": 7274,
      "ä»£è¡¨æĢ§çļĦ": 7275,
      "ç»©æķĪ": 7276,
      "73": 7277,
      "çļĦåĽ½éĻħ": 7278,
      "åĴĮæĸ¹æ³ķ": 7279,
      "ith": 7280,
      "æľªèĥ½": 7281,
      "è¯įçļĦ": 7282,
      "æīĢå¾Ĺ": 7283,
      "ä¸»è¦ģåĪĨå¸ĥåľ¨": 7284,
      "å®ļå±ħ": 7285,
      "åŀĴ": 7286,
      "èĭĳ": 7287,
      "ä½ľä¸ºä¸Ģç§į": 7288,
      "formation": 7289,
      "Ġæµĭç»ĺåŃ¦": 7290,
      "è®¾åľ¨": 7291,
      "å¿ĥèĦı": 7292,
      "åıĺå¾Ĺ": 7293,
      "ĠZh": 7294,
      "åı¯æĮģç»Ńåıĳå±ķ": 7295,
      "éģĵçļĦ": 7296,
      "é¸Łç±»": 7297,
      "çŃīçī¹çĤ¹": 7298,
      "å¹¶éĢļè¿ĩ": 7299,
      "åĪĩåī²": 7300,
      "æ¯ĶåĢ¼": 7301,
      "åĬ¿åĬĽ": 7302,
      "æĪĲç«ĭäºĨ": 7303,
      "æĬµæĬĹ": 7304,
      "çĶŁèĤ²": 7305,
      "åľ°åĬ¿": 7306,
      "åĩºèº«": 7307,
      "æīĢäº§çĶŁçļĦ": 7308,
      "æĭ¨": 7309,
      "ç¬¬åħŃ": 7310,
      "èĥļèĥİ": 7311,
      "çĬ¶æĢģçļĦ": 7312,
      "ä¸ŃæľĢ": 7313,
      "æŀģç®¡": 7314,
      "æµĻæ±Łçľģ": 7315,
      "å°±åı¯ä»¥": 7316,
      "å±¥è¡Į": 7317,
      "eb": 7318,
      "ä¸ĢçĶŁ": 7319,
      "çŁ³çģ°": 7320,
      "ç¡ķå£«åŃ¦ä½į": 7321,
      "çĶ±ç¾İåĽ½": 7322,
      "æĹłéĻĲ": 7323,
      "æıĲä¾ĽçļĦ": 7324,
      "ä¸ªä½ĵçļĦ": 7325,
      "æ´Ľéĺ³": 7326,
      "æĿĤåī§": 7327,
      "åĬ³åĬ¨åĬĽ": 7328,
      "ä¸¤å¤§ç±»": 7329,
      "ç¡¬åº¦": 7330,
      "ä¸İæŃ¤": 7331,
      "æīĢèĩ´": 7332,
      "èĬ±åĽŃ": 7333,
      "Ġä¸Ĭæµ·": 7334,
      "æľīä¸Ģä¸ª": 7335,
      "è£ħéħį": 7336,
      "çĶµæ°Ķå·¥ç¨ĭ": 7337,
      "æĸŃéĿ¢": 7338,
      "yd": 7339,
      "çİ°çĬ¶": 7340,
      "è¯ŀçĶŁ": 7341,
      "ç¤ºèĮĥ": 7342,
      "ime": 7343,
      "èĴ¸æ°Ķ": 7344,
      "èĩªèº«çļĦ": 7345,
      "éĢ¼": 7346,
      "æľīäºº": 7347,
      "ä¿Ŀå®Ī": 7348,
      "Ġj": 7349,
      "èĶ¬èıľ": 7350,
      "ä¸ºæŃ¤": 7351,
      "è®¤åı¯": 7352,
      "åĽ½ä¼ļ": 7353,
      "è¿ĺè¦ģ": 7354,
      "Ġç¤¾ä¼ļåŃ¦": 7355,
      "äººå£«": 7356,
      "è¡°åĩı": 7357,
      "åŃ©åŃĲ": 7358,
      "åĲ¾å°Ķ": 7359,
      "æĸ¹çļĦ": 7360,
      "åĬłä¸Ĭ": 7361,
      "åĩĮ": 7362,
      "æĪĲäºĨ": 7363,
      "äº§äºİ": 7364,
      "è®ºçļĦ": 7365,
      "Ġle": 7366,
      "æµ·å³¡": 7367,
      "æķħå®«": 7368,
      "åĪĿçº§": 7369,
      "åĴĮå¤§": 7370,
      "éħ·": 7371,
      "94": 7372,
      "è¥¿æĸ¯": 7373,
      "ĠåĨľä¸ļ": 7374,
      "æĥ©": 7375,
      "æĪĲç«ĭäºİ": 7376,
      "1917": 7377,
      "ä¸ĭæĿ¥": 7378,
      "76": 7379,
      "åŁºåĽ¢": 7380,
      "æ°ĶçĽ¸": 7381,
      "åŁİåĮº": 7382,
      "èķ¨": 7383,
      "èĲĮ": 7384,
      "ç»´åĲ¾å°Ķ": 7385,
      "}$ï¼Į": 7386,
      "åħ¶éĹ´": 7387,
      "åĲĪæł¼": 7388,
      "çĪª": 7389,
      "ç¼©çŁŃ": 7390,
      "è£Ĥçº¹": 7391,
      "æĺ¯ä¸º": 7392,
      "1914": 7393,
      "ä¸ĭéĥ¨": 7394,
      "åĦ¿åŃĲ": 7395,
      "æĸ¹å·®": 7396,
      "æŃ¤ç±»": 7397,
      "ç»´çĶŁç´ł": 7398,
      "åĪĹå®ģ": 7399,
      "äººçī©çļĦ": 7400,
      "å¹¶ä»¥": 7401,
      "åħĥç´łçļĦ": 7402,
      "åĳĪçİ°åĩº": 7403,
      "line": 7404,
      "ç»´å°Ķ": 7405,
      "æĸĩåŃ¦å¥ĸ": 7406,
      "ä¸ĢèĪ¬åľ¨": 7407,
      "ä¸ĢæĹ¦": 7408,
      "ä½ĵåĴĮ": 7409,
      "1918": 7410,
      "åľŁèĢ³": 7411,
      "åįģåŃĹ": 7412,
      "åľ¨åĨħçļĦ": 7413,
      "æ±ŀ": 7414,
      "æĮª": 7415,
      "ä¸ŃåĽ½äººæ°ĳ": 7416,
      "æ¯ĶåĪ©": 7417,
      "åı¥æ³ķ": 7418,
      "çļĦæłĩåĩĨ": 7419,
      "çŁ¥åĲį": 7420,
      "åľĨæŁ±": 7421,
      "å¼ĵ": 7422,
      "æ®ĭçĸ¾": 7423,
      "åıĳåĬ¨": 7424,
      "åĬłåĪ©": 7425,
      "ä¿¡æģ¯åĮĸ": 7426,
      "ĠCon": 7427,
      "åĲĥ": 7428,
      "ä¸ĸçºªçļĦ": 7429,
      "çļĦæİ§åĪ¶": 7430,
      "æ¯Ĺ": 7431,
      "æıĲåĢ¡": 7432,
      "è¢«è¿«": 7433,
      "çĭĹ": 7434,
      "åİŁåŃĲæł¸": 7435,
      "æĶ¿åĬ¡": 7436,
      "åı¤ç±į": 7437,
      "éī´åĪ«": 7438,
      "èĿ¶": 7439,
      "å¥³åĦ¿": 7440,
      "sc": 7441,
      "é»ĳäºº": 7442,
      "åĪ¶å¯¼": 7443,
      "éĵ¬": 7444,
      "æ´»è·ĥ": 7445,
      "åĽĽå·Ŀçľģ": 7446,
      "æĦıåĳ³çĿĢ": 7447,
      "åĪĨéĩı": 7448,
      "åıĺè¿ģ": 7449,
      "ik": 7450,
      "èī³": 7451,
      "åľŁèĢ³åħ¶": 7452,
      "éĻĦè¿ĳçļĦ": 7453,
      "é«ĺçŃīåŃ¦æł¡": 7454,
      "ä¸Ģä½į": 7455,
      "è¯Ńç³»": 7456,
      "ä¸»ç®¡éĥ¨éĹ¨": 7457,
      "ç¼´": 7458,
      "çģ¸": 7459,
      "éľľ": 7460,
      "æ¡Ĳ": 7461,
      "åīįæľŁ": 7462,
      "çļĦçĽ®æłĩ": 7463,
      "åĬĿ": 7464,
      "åı¯èĥ½æĢ§": 7465,
      "æ°¸ä¹ħ": 7466,
      "èĬ¯çīĩ": 7467,
      "åıįåºĶçļĦ": 7468,
      "éŀŃ": 7469,
      "éļıä¹ĭ": 7470,
      "æħİ": 7471,
      "çī©çĲĨåŃ¦å®¶": 7472,
      "å¤ļé¡¹": 7473,
      "ãĢķãĢĶ": 7474,
      "åĮ»çĶŁ": 7475,
      "æ²³åįĹçľģ": 7476,
      "å¼Ģæĭĵ": 7477,
      "å«ģ": 7478,
      "ä¼ŀ": 7479,
      "åı¯ä»¥çĶ¨": 7480,
      "å®£è¨Ģ": 7481,
      "æĹ¥å¸¸çĶŁæ´»": 7482,
      "çļĦæĢ»ç§°": 7483,
      "te": 7484,
      "çļĦéķ¿": 7485,
      "æµĬ": 7486,
      "1913": 7487,
      "æ·±è¿ľ": 7488,
      "ç»¸": 7489,
      "éĴ¨": 7490,
      "åĲİåľ¨": 7491,
      "ç¼Ģ": 7492,
      "one": 7493,
      "Ġtechn": 7494,
      "å°ıè¯´å®¶": 7495,
      "åħ¬åħ±ç®¡çĲĨ": 7496,
      "ä¸ĢçŃīå¥ĸ": 7497,
      "å£®æĹı": 7498,
      "èĳ¡èĲĦçīĻ": 7499,
      "ä¸Ģéĥ¨": 7500,
      "over": 7501,
      "AT": 7502,
      "ç§°ä½ľ": 7503,
      "Ġhe": 7504,
      "arrow": 7505,
      "çļĦåħ·ä½ĵ": 7506,
      "è¢«åĬ¨": 7507,
      "ä¾Ŀèµĸäºİ": 7508,
      "æľĪçĲĥ": 7509,
      "èº¯": 7510,
      "åĬłæĭī": 7511,
      "å«©": 7512,
      "éħ°èĥº": 7513,
      "å¸½": 7514,
      "åĮºåĪĴ": 7515,
      "æµ·åįĹ": 7516,
      "ä¸¤ç«¯": 7517,
      "åľ¨å¤§": 7518,
      "æ¤įçī©ä¿ĿæĬ¤åŃ¦": 7519,
      "åĲİæŀľ": 7520,
      "æ»ĭ": 7521,
      "èĪªå¤©åĻ¨": 7522,
      "ss": 7523,
      "æ³»": 7524,
      "ĠPro": 7525,
      "æĢ§è´¨çļĦ": 7526,
      "èħ»": 7527,
      "ä¸§å¤±": 7528,
      "è¡įå°Ħ": 7529,
      "87": 7530,
      "Ġæ³ķåĽ½": 7531,
      "æ°ĳä¿Ĺ": 7532,
      "æłĩæľ¬": 7533,
      "é¢ĦèŃ¦": 7534,
      "èµ¢": 7535,
      "å¿ĺ": 7536,
      "å§ľ": 7537,
      "æ·±åıĹ": 7538,
      "æ¤ŃåľĨå½¢": 7539,
      "ous": 7540,
      "Ġæ¤įçī©ä¿ĿæĬ¤åŃ¦": 7541,
      "åĿĲæłĩç³»": 7542,
      "è¾ĥéķ¿": 7543,
      "ĠChinese": 7544,
      "åį¤": 7545,
      "ä»ĸå¯¹": 7546,
      "èĩ´çĹħ": 7547,
      "éĽĢ": 7548,
      "çĽ®åīį": 7549,
      "ç¡¬ä»¶": 7550,
      "å¾·éĩĮ": 7551,
      "ä¸¸": 7552,
      "è½¬åŁºåĽł": 7553,
      "æ¶Īæģ¯": 7554,
      "åıĳå±ķåĴĮ": 7555,
      "æ²īç§¯çī©": 7556,
      "å°ī": 7557,
      "åĩĢåĮĸ": 7558,
      "ly": 7559,
      "çī¹å¼ĤæĢ§": 7560,
      "èĲ¥éĢł": 7561,
      "93": 7562,
      "çļĦè¯Ńè¨Ģ": 7563,
      "è¾ĥå¥½çļĦ": 7564,
      "ä¸ĢèĪ¬éĩĩçĶ¨": 7565,
      "ological": 7566,
      "éķ¿å®ī": 7567,
      "éģĵæķĻ": 7568,
      "Ġind": 7569,
      "åĪĳæ³ķ": 7570,
      "å±±ä¸ľçľģ": 7571,
      "ä¸ŃæĢ§": 7572,
      "Ġro": 7573,
      "åı¯å°Ĩ": 7574,
      "ä»İæŃ¤": 7575,
      "æł¡éķ¿": 7576,
      "è¯·æ±Ĥ": 7577,
      "åĮºåĨħ": 7578,
      "åĽĽå¤§": 7579,
      "Ġæ¸Ķä¸ļ": 7580,
      "èĳĹè¿°": 7581,
      "çĮĽ": 7582,
      "å·¥èµĦ": 7583,
      "è¢«è¯ķ": 7584,
      "æīĵçł´": 7585,
      "åĨħå®¹çļĦ": 7586,
      "å°½éĩı": 7587,
      "ĠçĶµæ°Ķå·¥ç¨ĭ": 7588,
      "åİ¦": 7589,
      "åĪĨåī²": 7590,
      "èĸ¯": 7591,
      "ä¸İä¹ĭ": 7592,
      "æīĢéķ¿": 7593,
      "åħ¼ä»»": 7594,
      "è½¬è¿Ĳ": 7595,
      "è¨Ģè¯Ń": 7596,
      "agement": 7597,
      "ĠåĬĽåŃ¦": 7598,
      "äº§æĿĥ": 7599,
      "ä¸İåıĳå±ķ": 7600,
      "ç»¼åĲĪå¾ģ": 7601,
      "ä¿Ĭ": 7602,
      "ä¸Ĭå±Ĥ": 7603,
      "å½¢çļĦ": 7604,
      "é½¿è½®": 7605,
      "ä¼ļè®¡": 7606,
      "å¼Ģè®¾": 7607,
      "è¶Ĭé«ĺ": 7608,
      "çĶ²çĥ·": 7609,
      "åºŁå¼ĥ": 7610,
      "ä»Ķ": 7611,
      "åĲĮæĦı": 7612,
      "æĸ°çŁ³åĻ¨æĹ¶ä»£": 7613,
      "åįģä¸ī": 7614,
      "çīµå¼ķ": 7615,
      "åĨįçİ°": 7616,
      "åĶ±èħĶ": 7617,
      "ä¸ľåĮĹéĥ¨": 7618,
      "å±¯": 7619,
      "äºĮæŀģç®¡": 7620,
      "Ġ189": 7621,
      "åĪ¶æĪĲçļĦ": 7622,
      "é»Ħéĩĳ": 7623,
      "min": 7624,
      "çļĦè¿ĩç¨ĭä¸Ń": 7625,
      "äººçĶŁ": 7626,
      "ç»Īç«¯": 7627,
      "ç»ĨèĬĤ": 7628,
      "æ´¾çļĦ": 7629,
      "æī¾åĪ°": 7630,
      "åĩºåľŁçļĦ": 7631,
      "èį·è½½": 7632,
      "çĶŁäº§åĬĽ": 7633,
      "åįķä½ĵ": 7634,
      "æ¯Ľç»Ĩ": 7635,
      "å½ĵäºĭäºº": 7636,
      "ĠçŁ³æ²¹": 7637,
      "çļĦæľīæķĪ": 7638,
      "åĲĳä¸Ĭ": 7639,
      "éĢīåıĸ": 7640,
      "åįģä¸Ģ": 7641,
      "åħ¨èº«": 7642,
      "Ð²": 7643,
      "æĢ»éĥ¨": 7644,
      "æ´»åĬ¨ä¸Ń": 7645,
      "åĲİåıĪ": 7646,
      "æĶ¾åľ¨": 7647,
      "æĬĹæĹ¥æĪĺäºī": 7648,
      "è´¦": 7649,
      "çļĦä¸Ģç±»": 7650,
      "ä¸İå¤©çĦ¶æ°Ķ": 7651,
      "ä¸įåĪ°": 7652,
      "æľºåĴĮ": 7653,
      "è®¾è®¡å¸Ī": 7654,
      "ä»ªåĻ¨ç§ĳåŃ¦ä¸İæĬĢæľ¯": 7655,
      "åľ¨è¯¥": 7656,
      "ysis": 7657,
      "éĩĩçĶ¨çļĦ": 7658,
      "é¦ĸæ¼Ķ": 7659,
      "å¾Īéļ¾": 7660,
      "ä¼Ļ": 7661,
      "Ġä»ªåĻ¨ç§ĳåŃ¦ä¸İæĬĢæľ¯": 7662,
      "æĸ¹åĲĳçļĦ": 7663,
      "Ð½": 7664,
      "Ġat": 7665,
      "æŃ£ä¹ī": 7666,
      "ï¼ŀ": 7667,
      "æ°´çĶµç«Ļ": 7668,
      "çļĦä¸Ģç³»åĪĹ": 7669,
      "æµģéĢŁ": 7670,
      "ulation": 7671,
      "éĶ¤": 7672,
      "è¡Įä½¿": 7673,
      "å¤±æķĪ": 7674,
      "çŁ®": 7675,
      "ä¸ľåįĹéĥ¨": 7676,
      "ç¨ĢåľŁ": 7677,
      "é«ĺèĥ½": 7678,
      "ç»Ħä»¶": 7679,
      "æĤŁ": 7680,
      "ç¢±æĢ§": 7681,
      "å¼łåĬĽ": 7682,
      "äºĨä¸Ģç³»åĪĹ": 7683,
      "è®¾è®¡åĴĮ": 7684,
      "ä»¥èī²": 7685,
      "çĲ¼": 7686,
      "é£ŀè¡ĮåĻ¨": 7687,
      "æ¯Ĵç´ł": 7688,
      "åĪ¶åº¦çļĦ": 7689,
      "éĶ£": 7690,
      "æ¬¡æķ°": 7691,
      "ä¸ĩå¹³æĸ¹ç±³": 7692,
      "é¢ĸ": 7693,
      "è½¨è¿¹": 7694,
      "æĸĩä½ĵ": 7695,
      "çªģåıĳ": 7696,
      "å®ŀè·µä¸Ń": 7697,
      "Ġcontrol": 7698,
      "åıĳçĶŁäºĨ": 7699,
      "å¤ªåŃĲ": 7700,
      "æ°´çĶŁ": 7701,
      "ç¬Ľ": 7702,
      "æīĢéľĢçļĦ": 7703,
      "çĽĴ": 7704,
      "ç»Īèº«": 7705,
      "çĶµåı°": 7706,
      "æ°´æºĲ": 7707,
      "çīĩæ®µ": 7708,
      "ä¸ĸçºªä¸Ńåı¶": 7709,
      "éª¨éª": 7710,
      "éĺ´æŀģ": 7711,
      "åĽ½æ°ĳç»ıæµİ": 7712,
      "åı¯éĩĩçĶ¨": 7713,
      "Ġmeth": 7714,
      "è¯ºå¤«": 7715,
      "é»ıèĨľ": 7716,
      "èĢĢ": 7717,
      "åĬ¨æ¤įçī©": 7718,
      "ç¤ģ": 7719,
      "ä»¥ä¸º": 7720,
      "æ°´åľŁ": 7721,
      "ç½©": 7722,
      "ä¸Ńåħ±ä¸Ńå¤®": 7723,
      "pr": 7724,
      "æĿ¥å®ŀçİ°": 7725,
      "åŀĭåĴĮ": 7726,
      "ç©ºä¸Ń": 7727,
      "æĪ¿å±ĭ": 7728,
      "éĺĲè¿°": 7729,
      "å¢ŀå¤ļ": 7730,
      "ograph": 7731,
      "ï¼ĽãĢĬ": 7732,
      "ä¹¦çĽ®": 7733,
      "åıĤçħ§": 7734,
      "Ġèĭ±åĽ½": 7735,
      "çĽĪ": 7736,
      "MA": 7737,
      "å®´": 7738,
      "çİ©": 7739,
      "imes": 7740,
      "éģŃåıĹ": 7741,
      "å®¢ä½ĵ": 7742,
      "æµ·åĨĽ": 7743,
      "å¤«äºº": 7744,
      "å¯ĨåĪĩçĽ¸åħ³": 7745,
      "çļĦåīįæıĲ": 7746,
      "MO": 7747,
      "æĪĲéĥ½": 7748,
      "èı©": 7749,
      "ç»ĪæŃ¢": 7750,
      "ä»¥åħ¶": 7751,
      "ä½ľäºĨ": 7752,
      "çŃīç»ĦæĪĲ": 7753,
      "å¼Ĭ": 7754,
      "åĳ½åĲįä¸º": 7755,
      "IC": 7756,
      "ç»´åº¦": 7757,
      "ä¸Ĭæµ·å¸Ĥ": 7758,
      "å·¥åŃ¦éĻ¢": 7759,
      "æ²³æµģåŁŁ": 7760,
      "çļĦéľĢæ±Ĥ": 7761,
      "è¿Ń": 7762,
      "åĳ½é¢ĺ": 7763,
      "æĻ¶æł¼": 7764,
      "oun": 7765,
      "èĢĮå¾ĹåĲį": 7766,
      "æ¶²çĽ¸": 7767,
      "ä¸Ģç»Ħ": 7768,
      "å¾·å°Ķ": 7769,
      "86": 7770,
      "çĶµèĥ½": 7771,
      "çļĦç³»ç»Ł": 7772,
      "ç©Ĺ": 7773,
      "æµ©": 7774,
      "é«ĺç¨ĭ": 7775,
      "è¡¨å±Ĥ": 7776,
      "åĮĹç¾İ": 7777,
      "åĴĮç»ıæµİ": 7778,
      "æļ´åĬĽ": 7779,
      "ç°§": 7780,
      "å¡Į": 7781,
      "åĩºçīĪç¤¾åĩºçīĪ": 7782,
      "iss": 7783,
      "å¹¼èĻ«": 7784,
      "åĨħå¿ĥ": 7785,
      "Na": 7786,
      "æ¸ħæ´ģ": 7787,
      "å¹´ä»£ä»¥æĿ¥": 7788,
      "æ³ķå®ļ": 7789,
      "æŃ£æ¯Ķ": 7790,
      "59": 7791,
      "ST": 7792,
      "è¥¿åħ°": 7793,
      "ä¸ºä»£è¡¨çļĦ": 7794,
      "å¯¡": 7795,
      "çĶŁæ¶¯": 7796,
      "èĴ²": 7797,
      "è¸ı": 7798,
      "ä¸İå¤©çĦ¶æ°Ķå·¥ç¨ĭ": 7799,
      "æķ°åįģ": 7800,
      "åįķçº¯": 7801,
      "é¹ħ": 7802,
      "ey": 7803,
      "æľºæŀĦçļĦ": 7804,
      "èĸĽ": 7805,
      "åı¥åŃĲ": 7806,
      "åĢŁéī´": 7807,
      "ĠçŁ³æ²¹ä¸İå¤©çĦ¶æ°Ķå·¥ç¨ĭ": 7808,
      "è¿Ĳç®Ĺ": 7809,
      "ata": 7810,
      "å¿ħè¦ģçļĦ": 7811,
      "æĬĦæľ¬": 7812,
      "åī¯ä¸»å¸Ń": 7813,
      "âĦĥãĢĤ": 7814,
      "åľ°çĲĥåĮĸåŃ¦": 7815,
      "å¯ĨéĽĨ": 7816,
      "é¡¶ç«¯": 7817,
      "]ãĢĤ": 7818,
      "ç§ĳåŃ¦çļĦ": 7819,
      "è¯ģå®ŀ": 7820,
      "åİĨåı²çļĦ": 7821,
      "å½¼å¾Ĺåł¡": 7822,
      "åŀĥ": 7823,
      "å¥¹çļĦ": 7824,
      "1910": 7825,
      "è®¡æķ°": 7826,
      "çİĩçļĦ": 7827,
      "åľ¾": 7828,
      "åĲĮçĽŁ": 7829,
      "èģĮå·¥": 7830,
      "å¼Ģå±ķäºĨ": 7831,
      "Ġ15": 7832,
      "éĿĻçĶµ": 7833,
      "ä»¥èī²åĪĹ": 7834,
      "èĦ¸": 7835,
      "å½Ĵçº³": 7836,
      "ä¹ĻéĨĩ": 7837,
      "ä½ĵçİ°åľ¨": 7838,
      "åŀĥåľ¾": 7839,
      "ä¾¨": 7840,
      "è¥¿åĮĹéĥ¨": 7841,
      "éĹ½": 7842,
      "æŀģç«¯": 7843,
      "æ¿ĢåħīåĻ¨": 7844,
      ")=": 7845,
      "å¹¶æ²¡æľī": 7846,
      "åĪĨæķ°": 7847,
      "çĸ¼": 7848,
      "éĵ¸éĢł": 7849,
      "é¹°": 7850,
      "89": 7851,
      "åĴĮæĸ°": 7852,
      "è¿ĻæĹ¶": 7853,
      "ç»´ä¹Ł": 7854,
      "ple": 7855,
      "èµĦåĬ©": 7856,
      "å®ĮæĪĲäºĨ": 7857,
      "æİ¨åĬ¨äºĨ": 7858,
      "åĲĦçľģ": 7859,
      "ynast": 7860,
      "ä¸Ģåº¦": 7861,
      "æ³¨å°Ħ": 7862,
      "å·¥ä¸ļåĮĸ": 7863,
      "slant": 7864,
      "$ï¼Ī": 7865,
      "74": 7866,
      "OH": 7867,
      "PA": 7868,
      "qslant": 7869,
      "ind": 7870,
      "å¹´ä»£ä¸ŃæľŁ": 7871,
      "ç³Ļ": 7872,
      "éĶļ": 7873,
      "åĮºåŁŁçļĦ": 7874,
      "1911": 7875,
      "åĽĽåįģ": 7876,
      "çķĻä¸ĭ": 7877,
      "æĢ»éĩı": 7878,
      "å¤§ä½ĵ": 7879,
      "ä¸įéľĢè¦ģ": 7880,
      "çĶµåĮĸåŃ¦": 7881,
      "æµ·å¤ĸ": 7882,
      "æĽ¾ç»ı": 7883,
      "éĢĢåĮĸ": 7884,
      "æİĴéĻ¤": 7885,
      "ility": 7886,
      "åĨĴ": 7887,
      "åħļçļĦ": 7888,
      "äº¤æĽ¿": 7889,
      "ä¸¥éĩįçļĦ": 7890,
      "æ·¤": 7891,
      "æ°ĳçĶ¨": 7892,
      "æĮ¤åİĭ": 7893,
      "æİ¨è¡Į": 7894,
      "åį³åľ¨": 7895,
      "æĹ©å¹´": 7896,
      "åľ°ä¸Ĭ": 7897,
      "è¶ħè¶Ĭ": 7898,
      "æ°´è§£": 7899,
      "æıĲçĲ´": 7900,
      "ä»ķ": 7901,
      "åħĭåħ°": 7902,
      "é¸Ń": 7903,
      "åĮĹäº¬å¸Ĥ": 7904,
      "Ġç®¡çĲĨ": 7905,
      "çļĦçī©è´¨": 7906,
      "èĳ£äºĭ": 7907,
      "çł¾": 7908,
      "æĸ¯æĭī": 7909,
      "æİ¨åĬĽ": 7910,
      "äººä»¬å¯¹": 7911,
      "è§£åīĸ": 7912,
      "åıĳå±ķäºĨ": 7913,
      "åıįåºĶåłĨ": 7914,
      "æĲħ": 7915,
      "ĠåĮĸå·¥": 7916,
      "éª¨éª¼": 7917,
      "800": 7918,
      "é¥²åħ»": 7919,
      "å±±è¥¿çľģ": 7920,
      "Â±": 7921,
      "çŃĽéĢī": 7922,
      "çļĦçī©çĲĨ": 7923,
      "å®¶åħ·": 7924,
      "åĩºçīĪåįķä½į": 7925,
      "åİ¥": 7926,
      "èįīä¸ļ": 7927,
      "åı¸é©¬": 7928,
      "åĴĮå¤ļ": 7929,
      "ä¸īçº§": 7930,
      "å°±è¯»": 7931,
      "Ġcl": 7932,
      "èĴĻåı¤æĹı": 7933,
      "çĶŁçĲĨåŃ¦": 7934,
      "å¼ĢåĲ¯": 7935,
      "æķħäºĭçīĩ": 7936,
      "çĶ·æĢ§": 7937,
      "è§£æŀĲ": 7938,
      "åĲ«æ°´": 7939,
      "åĪł": 7940,
      "ç»´ä¹Łçº³": 7941,
      "æĪĸä¸į": 7942,
      "æŃ¦å¸Ŀ": 7943,
      "æĳ©å°Ķ": 7944,
      "äº®åº¦": 7945,
      "æ£º": 7946,
      "Ġæ°´åĪ©å·¥ç¨ĭ": 7947,
      "è½®å»ĵ": 7948,
      "çļĦæľĢ": 7949,
      "åİŁæ²¹": 7950,
      "åħĥéŁ³": 7951,
      "å¦»åŃĲ": 7952,
      "åĪ¶çīĩåİĤ": 7953,
      "ost": 7954,
      "æĺ¯åħ¶": 7955,
      "åŁºéĩĳä¼ļ": 7956,
      "åĩºä»»": 7957,
      "å¼Ľ": 7958,
      "æ°§æ°Ķ": 7959,
      "äººç§į": 7960,
      "å¹¸ç¦ı": 7961,
      "ä¿ĺ": 7962,
      "ç»Ļå®ļ": 7963,
      "é«ĺå±±": 7964,
      "èĬĤçº¦": 7965,
      "Ġç®¡çĲĨç§ĳåŃ¦ä¸İå·¥ç¨ĭ": 7966,
      "PE": 7967,
      "åĨľèį¯": 7968,
      "å§Ķåĳĺä¼ļå§Ķåĳĺ": 7969,
      "éĺ¶æ®µçļĦ": 7970,
      "äººç±»åŃ¦": 7971,
      "æłĸæģ¯": 7972,
      "è¿ĩåº¦": 7973,
      "çĽ´è§Ĥ": 7974,
      "ubl": 7975,
      "çĽ¸çŃī": 7976,
      "è£Ĥåıĺ": 7977,
      "åĩĿåĽº": 7978,
      "äººåı£çº¦": 7979,
      "çĥĺ": 7980,
      "ä»»èģĮ": 7981,
      "åīįæıĲ": 7982,
      "å®¡åĪ¤": 7983,
      "äº©": 7984,
      "æĽĿ": 7985,
      "éĿ¢ç§¯çº¦": 7986,
      "å°¸": 7987,
      "äººåĳĺçļĦ": 7988,
      "ç»ıæµİåŃ¦å®¶": 7989,
      "å½ķéŁ³": 7990,
      "ety": 7991,
      "ĠUn": 7992,
      "åĮĪçīĻ": 7993,
      "éĢīçŁ¿": 7994,
      "å·´å°Ķ": 7995,
      "çĶľ": 7996,
      "åħ·æľīä¸Ģå®ļçļĦ": 7997,
      "æĸĩåŃ¦çļĦ": 7998,
      "äººä»¬çļĦ": 7999,
      "åĮĪçīĻåĪ©": 8000,
      "æİ©": 8001,
      "å½»åºķ": 8002,
      "çī¹æĢ§çļĦ": 8003,
      "åĻ¨çī©": 8004,
      "é¡¶éĥ¨": 8005,
      "éĢłåĥı": 8006,
      "æ³¥æ²Ļ": 8007,
      "ç¬¬ä¸ĥ": 8008,
      "ç«ĭåľº": 8009,
      "æľ¨è´¨": 8010,
      "æ¢Ĺ": 8011,
      "è§Ĥèµı": 8012,
      "AB": 8013,
      "å¯¹ç«ĭ": 8014,
      "æĮĩåĲĳ": 8015,
      "çĹķè¿¹": 8016,
      "]ï¼Į": 8017,
      "æĨ": 8018,
      "æĿ¿åĿĹ": 8019,
      "ox": 8020,
      "çłģå¤´": 8021,
      "ä¹Łåľ¨": 8022,
      "æŃ£æĺ¯": 8023,
      "æİ¨åĩº": 8024,
      "ç¼ĵåĨ²": 8025,
      "ç§ĺå¯Ĩ": 8026,
      "Ġanal": 8027,
      "åĩºè¡Ģ": 8028,
      "åĬłåĵ¥": 8029,
      "æ°ĶåĮĸ": 8030,
      "ä¼´å¥ı": 8031,
      "èĬĿåĬłåĵ¥": 8032,
      "æĢ§çŃī": 8033,
      "ç¤¾ä¼ļç»ıæµİ": 8034,
      "MS": 8035,
      "çī¢": 8036,
      "æĭĺ": 8037,
      "æłĩåĩĨçļĦ": 8038,
      "æĪĲåĵģ": 8039,
      "åĲİç»Ń": 8040,
      "æĮĩåįĹ": 8041,
      "ä¸įç¨³å®ļ": 8042,
      "ä¸Ńåįİæ°ĳåĽ½": 8043,
      "^\\": 8044,
      "ire": 8045,
      "è¯µ": 8046,
      "æ¶Īæ¯Ĵ": 8047,
      "eas": 8048,
      "nu": 8049,
      "æķ¢": 8050,
      "1900": 8051,
      "åħĪåĲİåľ¨": 8052,
      "ï¼ľ": 8053,
      "åĲįåŃĹ": 8054,
      "æ¶Ĥå±Ĥ": 8055,
      "çļĦä½¿çĶ¨": 8056,
      "æĺ¯æľĢ": 8057,
      "ower": 8058,
      "åĽĽåºĵåħ¨ä¹¦": 8059,
      "èĢĮéĿŀ": 8060,
      "æ°Ķç®¡": 8061,
      "è¥¿åĳ¨": 8062,
      "åŁİå¢Ļ": 8063,
      "æ³ķåħ¸": 8064,
      "èī°": 8065,
      "å¹¶ä¸įæĺ¯": 8066,
      "çŃ¾ç½²": 8067,
      "çĹħçĲĨ": 8068,
      "ç¢§": 8069,
      "å¸¦åĬ¨": 8070,
      "æĺłå°Ħ": 8071,
      "éĢĢä¼ĳ": 8072,
      "éķĢ": 8073,
      "æ®·": 8074,
      "æĽ´é«ĺ": 8075,
      "Ġsc": 8076,
      "ternational": 8077,
      "åĽŀå¿Ĩ": 8078,
      "åŁºæľ¬ä¸Ĭ": 8079,
      "åıĺè´¨": 8080,
      "è¥¿åįĹéĥ¨": 8081,
      "ature": 8082,
      "é¾Ľ": 8083,
      "æĻķ": 8084,
      "çĪ¬": 8085,
      "åĽ½éĻħçĶµå½±èĬĤ": 8086,
      "åĲŁ": 8087,
      "åĸĦäºİ": 8088,
      "å¯»æ±Ĥ": 8089,
      "éĻĦå±ŀ": 8090,
      "çĽ¸è¿ĳ": 8091,
      "éĩįçļĦ": 8092,
      "åĬłåĿ¡": 8093,
      "ä¸ºæł¸å¿ĥ": 8094,
      "èĳĹä½ľæľī": 8095,
      "çļĦçĬ¶æĢģ": 8096,
      "åľ¨å®ŀéĻħ": 8097,
      "æłĵ": 8098,
      "âĢĿãĢģ": 8099,
      "âĢĵ": 8100,
      "çļĦåİŁåĽł": 8101,
      "éľ¸": 8102,
      "æĽ´å¥½åľ°": 8103,
      "é£ŁçĶ¨": 8104,
      "èĴĻçī¹": 8105,
      "é»ıåº¦": 8106,
      "éĩĩçĶ¨äºĨ": 8107,
      "èĭĹæĹı": 8108,
      "ä½Ļç§į": 8109,
      "åįĳ": 8110,
      "éķ¿æ²Ļ": 8111,
      "åħ¶åľ¨": 8112,
      "æĹ¬": 8113,
      "èīºäºº": 8114,
      "åĶ±çīĩ": 8115,
      "åħ¥åı£": 8116,
      "çłĶè®¨": 8117,
      "åĲįèªī": 8118,
      "å½°": 8119,
      "çĶµåĬ¨": 8120,
      "è·Ŀä»Ĭ": 8121,
      "é¢ĦæľŁ": 8122,
      "çĥ§ç»ĵ": 8123,
      "Ġmethod": 8124,
      "å±ł": 8125,
      "æĺ¯çłĶç©¶": 8126,
      "èĩªåıĳ": 8127,
      "èµ·ä¼ı": 8128,
      "ä¿¡æģ¯ä¸İ": 8129,
      "éºŁ": 8130,
      "CT": 8131,
      "æľ¬ä¹¦": 8132,
      "çº¿åľĪ": 8133,
      "ç¤¾ä¼ļç§ĳåŃ¦": 8134,
      "å§ĭå»ºäºİ": 8135,
      "çĪ±å°Ķ": 8136,
      "çªģçĦ¶": 8137,
      "5000": 8138,
      "æĦ¤": 8139,
      "åĬłå°Ķ": 8140,
      "æĮªå¨ģ": 8141,
      "çŁ¥éģĵ": 8142,
      "é¢ĳç¹ģ": 8143,
      "ä¸Ģæī¹": 8144,
      "ãĢĭï¼īï¼Į": 8145,
      "æľ¬åľŁ": 8146,
      "æĹħè¡Į": 8147,
      "äº¤éĢļè¿Ĳè¾ĵå·¥ç¨ĭ": 8148,
      "æĺ¯åĪ©çĶ¨": 8149,
      "ç»Łç§°": 8150,
      "ä¼łæĴŃåŃ¦": 8151,
      "ç§ĳå¤«": 8152,
      "è¯Ĺä½ľ": 8153,
      "åĽ¾ä¹¦é¦ĨåŃ¦": 8154,
      "1905": 8155,
      "å¤Ħç½ļ": 8156,
      "æ£ļ": 8157,
      "è¯Ħå®ļ": 8158,
      "æ»¡æĹı": 8159,
      "ä¾µåħ¥": 8160,
      "æ°Ķæ°Ľ": 8161,
      "äºĭé¡¹": 8162,
      "çŁ³å¢¨": 8163,
      "Ca": 8164,
      "çļĦçĶŁçī©": 8165,
      "åĪĨä¼ļ": 8166,
      "egin": 8167,
      "åĩºäºİ": 8168,
      "æ®ĭçķĻ": 8169,
      "è¿Ŀåıį": 8170,
      "its": 8171,
      "ĠGu": 8172,
      "sp": 8173,
      "ä¸»æµģ": 8174,
      "æĸĩåŃ¦ä½ľåĵģ": 8175,
      "å·ŀçļĦ": 8176,
      "éĩĩè´Ń": 8177,
      "éĢıéķľ": 8178,
      "å¯Ħä¸»": 8179,
      "çļĦè§Ĵåº¦": 8180,
      "éĻĲäºİ": 8181,
      "è¯ĳæľ¬": 8182,
      "æıĴåħ¥": 8183,
      "69": 8184,
      "ĠæŀĹä¸ļ": 8185,
      "èĢĮæĿ¥": 8186,
      "æ¶²æĢģ": 8187,
      "åħ´å¥ĭ": 8188,
      "å¥¥è¿Ĳ": 8189,
      "æīĢçĶ¨": 8190,
      "çº¤ç»´ç´ł": 8191
    },
    "merges": [
      [
        "ã",
        "Ģ"
      ],
      [
        "ä",
        "¸"
      ],
      [
        "ï",
        "¼"
      ],
      [
        "ï¼",
        "Į"
      ],
      [
        "ç",
        "ļ"
      ],
      [
        "çļ",
        "Ħ"
      ],
      [
        "ãĢ",
        "Ĥ"
      ],
      [
        "ä",
        "º"
      ],
      [
        "å",
        "ı"
      ],
      [
        "æ",
        "ľ"
      ],
      [
        "å",
        "ħ"
      ],
      [
        "ãĢ",
        "ģ"
      ],
      [
        "å",
        "Ī"
      ],
      [
        "ç",
        "Ķ"
      ],
      [
        "ä",
        "»"
      ],
      [
        "å",
        "Ĳ"
      ],
      [
        "å",
        "¤"
      ],
      [
        "ä",
        "½"
      ],
      [
        "æ",
        "ĸ"
      ],
      [
        "å",
        "ľ"
      ],
      [
        "å",
        "®"
      ],
      [
        "å",
        "Ń"
      ],
      [
        "ç",
        "»"
      ],
      [
        "å",
        "Ľ"
      ],
      [
        "ç",
        "§"
      ],
      [
        "è",
        "¿"
      ],
      [
        "å",
        "¹"
      ],
      [
        "å",
        "Ĭ"
      ],
      [
        "å",
        "į"
      ],
      [
        "å",
        "Į"
      ],
      [
        "ä",
        "¹"
      ],
      [
        "æ",
        "ĺ"
      ],
      [
        "æ",
        "Ī"
      ],
      [
        "å",
        "Ĵ"
      ],
      [
        "åĴ",
        "Į"
      ],
      [
        "ç",
        "ī"
      ],
      [
        "å",
        "º"
      ],
      [
        "åŃ",
        "¦"
      ],
      [
        "æ",
        "Ĺ"
      ],
      [
        "è",
        "¯"
      ],
      [
        "é",
        "ĩ"
      ],
      [
        "ä¸",
        "Ń"
      ],
      [
        "å",
        "°"
      ],
      [
        "è",
        "®"
      ],
      [
        "ä¸",
        "º"
      ],
      [
        "å",
        "±"
      ],
      [
        "ä",
        "¼"
      ],
      [
        "å",
        "¼"
      ],
      [
        "æ",
        "°"
      ],
      [
        "æ",
        "Ģ"
      ],
      [
        "æ",
        "ķ"
      ],
      [
        "åľ",
        "¨"
      ],
      [
        "è",
        "¡"
      ],
      [
        "ä¸",
        "Ģ"
      ],
      [
        "åĽ",
        "½"
      ],
      [
        "å",
        "¯"
      ],
      [
        "é",
        "Ģ"
      ],
      [
        "æľ",
        "ī"
      ],
      [
        "æ",
        "Ŀ"
      ],
      [
        "æ",
        "ī"
      ],
      [
        "å",
        "·"
      ],
      [
        "å",
        "ĩ"
      ],
      [
        "å",
        "Ĩ"
      ],
      [
        "â",
        "Ģ"
      ],
      [
        "æ",
        "µ"
      ],
      [
        "å",
        "½"
      ],
      [
        "æ",
        "³"
      ],
      [
        "ç",
        "Ľ"
      ],
      [
        "å",
        "¸"
      ],
      [
        "ç",
        "º"
      ],
      [
        "ç",
        "İ"
      ],
      [
        "ç",
        "Ń"
      ],
      [
        "å¹",
        "´"
      ],
      [
        "å",
        "¾"
      ],
      [
        "æĺ",
        "¯"
      ],
      [
        "è",
        "§"
      ],
      [
        "çĶ",
        "Ł"
      ],
      [
        "è",
        "Ģ"
      ],
      [
        "çĶ",
        "¨"
      ],
      [
        "æ",
        "ł"
      ],
      [
        "æĸ",
        "ĩ"
      ],
      [
        "äº",
        "İ"
      ],
      [
        "ï¼",
        "Ī"
      ],
      [
        "å",
        "İ"
      ],
      [
        "ï¼",
        "ī"
      ],
      [
        "æ",
        "ŀ"
      ],
      [
        "äº",
        "º"
      ],
      [
        "å¤",
        "§"
      ],
      [
        "é",
        "Ļ"
      ],
      [
        "åĪ",
        "Ĩ"
      ],
      [
        "ä»",
        "¥"
      ],
      [
        "åľ",
        "°"
      ],
      [
        "ç",
        "Ĳ"
      ],
      [
        "ä½",
        "ľ"
      ],
      [
        "æĪ",
        "Ĳ"
      ],
      [
        "çŃ",
        "ī"
      ],
      [
        "è",
        "´"
      ],
      [
        "è",
        "ĥ"
      ],
      [
        "ãĢ",
        "ĭ"
      ],
      [
        "ãĢ",
        "Ĭ"
      ],
      [
        "æ",
        "Ĭ"
      ],
      [
        "é",
        "Ŀ"
      ],
      [
        "é",
        "Ĺ"
      ],
      [
        "çī",
        "©"
      ],
      [
        "å",
        "Ł"
      ],
      [
        "æ",
        "Ķ"
      ],
      [
        "æĢ",
        "§"
      ],
      [
        "è",
        "¾"
      ],
      [
        "ä½",
        "ĵ"
      ],
      [
        "åĮ",
        "ĸ"
      ],
      [
        "1",
        "9"
      ],
      [
        "æ",
        "Ń"
      ],
      [
        "åı",
        "ĳ"
      ],
      [
        "é",
        "ĥ"
      ],
      [
        "ä",
        "¿"
      ],
      [
        "æ",
        "İ"
      ],
      [
        "ä¸",
        "İ"
      ],
      [
        "çĲ",
        "Ĩ"
      ],
      [
        "åĩ",
        "º"
      ],
      [
        "ç§",
        "°"
      ],
      [
        "æĹ",
        "¶"
      ],
      [
        "ä¸",
        "į"
      ],
      [
        "äº",
        "Ĩ"
      ],
      [
        "ç",
        "±"
      ],
      [
        "æ",
        "²"
      ],
      [
        "è",
        "ĩ"
      ],
      [
        "è",
        "¦"
      ],
      [
        "ä¸",
        "»"
      ],
      [
        "è",
        "ĭ"
      ],
      [
        "å¯",
        "¹"
      ],
      [
        "è¦",
        "ģ"
      ],
      [
        "æ",
        "ĭ"
      ],
      [
        "æĸ",
        "¹"
      ],
      [
        "è¡",
        "Į"
      ],
      [
        "è",
        "µ"
      ],
      [
        "æ³",
        "ķ"
      ],
      [
        "åĲ",
        "į"
      ],
      [
        "åĬ",
        "¨"
      ],
      [
        "ç§",
        "ĳ"
      ],
      [
        "æī",
        "Ģ"
      ],
      [
        "å·",
        "¥"
      ],
      [
        "å",
        "ī"
      ],
      [
        "ç",
        "¨"
      ],
      [
        "å",
        "ĵ"
      ],
      [
        "åı",
        "¯"
      ],
      [
        "ç",
        "³"
      ],
      [
        "åº",
        "¦"
      ],
      [
        "ä¸",
        "Ĭ"
      ],
      [
        "ä¼",
        "ļ"
      ],
      [
        "æ",
        "´"
      ],
      [
        "éĩ",
        "ı"
      ],
      [
        "é",
        "ĺ"
      ],
      [
        "åħ",
        "¶"
      ],
      [
        "èĥ",
        "½"
      ],
      [
        "å®",
        "ļ"
      ],
      [
        "ä¸",
        "ª"
      ],
      [
        "é",
        "¢"
      ],
      [
        "ç³",
        "»"
      ],
      [
        "å",
        "ĳ"
      ],
      [
        "å",
        "¿"
      ],
      [
        "ç",
        "©"
      ],
      [
        "âĢ",
        "ľ"
      ],
      [
        "âĢ",
        "Ŀ"
      ],
      [
        "ç§",
        "į"
      ],
      [
        "æ",
        "±"
      ],
      [
        "æ",
        "¯"
      ],
      [
        "æ",
        "Į"
      ],
      [
        "è",
        "½"
      ],
      [
        "æ",
        "¸"
      ],
      [
        "ç",
        "«"
      ],
      [
        "éĥ",
        "¨"
      ],
      [
        "åĲ",
        "İ"
      ],
      [
        "ç",
        "®"
      ],
      [
        "å",
        "¥"
      ],
      [
        "ç",
        "Ł"
      ],
      [
        "åĪ",
        "¶"
      ],
      [
        "çİ",
        "°"
      ],
      [
        "åŃ",
        "Ĳ"
      ],
      [
        "ä»",
        "£"
      ],
      [
        "åĲ",
        "Ī"
      ],
      [
        "èĭ",
        "±"
      ],
      [
        "çĶ",
        "µ"
      ],
      [
        "æ°",
        "´"
      ],
      [
        "è¿",
        "ĩ"
      ],
      [
        "éĹ",
        "´"
      ],
      [
        "å±",
        "ŀ"
      ],
      [
        "éĿ",
        "¢"
      ],
      [
        "å¤",
        "ļ"
      ],
      [
        "é",
        "«"
      ],
      [
        "é",
        "ķ"
      ],
      [
        "å®",
        "¶"
      ],
      [
        "è¿",
        "Ľ"
      ],
      [
        "äº",
        "§"
      ],
      [
        "ç¨",
        "ĭ"
      ],
      [
        "é«",
        "ĺ"
      ],
      [
        "æľ",
        "º"
      ],
      [
        "åĲ",
        "Į"
      ],
      [
        "ä",
        "¾"
      ],
      [
        "ç",
        "ł"
      ],
      [
        "ç",
        "½"
      ],
      [
        "ä¹",
        "ĭ"
      ],
      [
        "åı",
        "Ĭ"
      ],
      [
        "é",
        "ģ"
      ],
      [
        "ä¸",
        "ļ"
      ],
      [
        "è",
        "ī"
      ],
      [
        "æķ",
        "°"
      ],
      [
        "å½",
        "¢"
      ],
      [
        "éĢ",
        "ļ"
      ],
      [
        "å",
        "»"
      ],
      [
        "åº",
        "Ķ"
      ],
      [
        "æĪ",
        "ĸ"
      ],
      [
        "åĲį",
        "ç§°"
      ],
      [
        "æ",
        "į"
      ],
      [
        "åĬ",
        "Ľ"
      ],
      [
        "é",
        "Ľ"
      ],
      [
        "çĽ",
        "¸"
      ],
      [
        "ç»",
        "Ł"
      ],
      [
        "ç",
        "Ĥ"
      ],
      [
        "ç»",
        "ı"
      ],
      [
        "åĨ",
        "ħ"
      ],
      [
        "å¼",
        "ı"
      ],
      [
        "ç",
        "¤"
      ],
      [
        "æľ",
        "¯"
      ],
      [
        "èĢ",
        "Į"
      ],
      [
        "èĩ",
        "ª"
      ],
      [
        "æĸĩ",
        "åĲįç§°"
      ],
      [
        "å",
        "Ŀ"
      ],
      [
        "è",
        "Ĥ"
      ],
      [
        "å",
        "¢"
      ],
      [
        "åŁ",
        "º"
      ],
      [
        "è¡",
        "¨"
      ],
      [
        "æ",
        "ı"
      ],
      [
        "2",
        "0"
      ],
      [
        "ï¼",
        "Ľ"
      ],
      [
        "æľ",
        "¬"
      ],
      [
        "çī",
        "¹"
      ],
      [
        "è´",
        "¨"
      ],
      [
        "æ",
        "Ľ"
      ],
      [
        "æľ",
        "Ł"
      ],
      [
        "éĩ",
        "į"
      ],
      [
        "è",
        "°"
      ],
      [
        "èĭ±",
        "æĸĩåĲįç§°"
      ],
      [
        "åĮ",
        "º"
      ],
      [
        "ç",
        "¾"
      ],
      [
        "å®",
        "ŀ"
      ],
      [
        "åĪ",
        "°"
      ],
      [
        "ä¸Ń",
        "åĽ½"
      ],
      [
        "çĶ",
        "±"
      ],
      [
        "è",
        "Ī"
      ],
      [
        "ä¸",
        "ĭ"
      ],
      [
        "ç±",
        "»"
      ],
      [
        "èĢ",
        "ħ"
      ],
      [
        "å",
        "ŀ"
      ],
      [
        "è®",
        "¾"
      ],
      [
        "ä¸",
        "ĸ"
      ],
      [
        "å»",
        "º"
      ],
      [
        "¦",
        "Ĥ"
      ],
      [
        "ä½",
        "į"
      ],
      [
        "åħ",
        "³"
      ],
      [
        "ç",
        "¼"
      ],
      [
        "æ",
        "Ļ"
      ],
      [
        "æ",
        "Ħ"
      ],
      [
        "é",
        "ļ"
      ],
      [
        "ç",
        "¬"
      ],
      [
        "åĬ",
        "ł"
      ],
      [
        "ç",
        "ķ"
      ],
      [
        "ç»",
        "ĵ"
      ],
      [
        "éķ",
        "¿"
      ],
      [
        "åĪ",
        "©"
      ],
      [
        "çł",
        "Ķ"
      ],
      [
        "å¹",
        "³"
      ],
      [
        "å±",
        "ķ"
      ],
      [
        "è",
        "ģ"
      ],
      [
        "æ",
        "º"
      ],
      [
        "åĵ",
        "ģ"
      ],
      [
        "æµ",
        "ģ"
      ],
      [
        "åİ",
        "Ł"
      ],
      [
        "æŀ",
        "Ħ"
      ],
      [
        "æĿ",
        "¥"
      ],
      [
        "åı",
        "ĺ"
      ],
      [
        "åħ",
        "¨"
      ],
      [
        "ç»",
        "Ħ"
      ],
      [
        "è®",
        "¡"
      ],
      [
        "è",
        "Ĭ"
      ],
      [
        "æ",
        "Ł"
      ],
      [
        "åŃ¦",
        "ç§ĳ"
      ],
      [
        "å",
        "£"
      ],
      [
        "æ°",
        "ĳ"
      ],
      [
        "åĽ",
        "ł"
      ],
      [
        "ç",
        "ĥ"
      ],
      [
        "çĤ",
        "¹"
      ],
      [
        "å°",
        "ı"
      ],
      [
        "å",
        "Ļ"
      ],
      [
        "æ°",
        "Ķ"
      ],
      [
        "åŀ",
        "ĭ"
      ],
      [
        "æ",
        "ĥ"
      ],
      [
        "ç",
        "¡"
      ],
      [
        "å¹",
        "¶"
      ],
      [
        "æ",
        "¶"
      ],
      [
        "è",
        "į"
      ],
      [
        "æķ",
        "Ļ"
      ],
      [
        "é",
        "£"
      ],
      [
        "ä»",
        "ĸ"
      ],
      [
        "â",
        "ĳ"
      ],
      [
        "å¼",
        "Ģ"
      ],
      [
        "é",
        "ħ"
      ],
      [
        "å¤",
        "ĸ"
      ],
      [
        "ç©",
        "¶"
      ],
      [
        "å½",
        "±"
      ],
      [
        "åħ",
        "¬"
      ],
      [
        "å",
        "Ģ"
      ],
      [
        "ç",
        "´"
      ],
      [
        "æīĢ",
        "å±ŀ"
      ],
      [
        "ç±",
        "³"
      ],
      [
        "è",
        "¥"
      ],
      [
        "çłĶ",
        "ç©¶"
      ],
      [
        "è¿",
        "Ļ"
      ],
      [
        "æĹ",
        "¥"
      ],
      [
        "ç®",
        "¡"
      ],
      [
        "æľ",
        "Ģ"
      ],
      [
        "æı",
        "Ĳ"
      ],
      [
        "è",
        "·"
      ],
      [
        "æµ",
        "ĭ"
      ],
      [
        "åĻ",
        "¨"
      ],
      [
        "æĸ",
        "°"
      ],
      [
        "è¥",
        "¿"
      ],
      [
        "å",
        "¦Ĥ"
      ],
      [
        "å",
        "§"
      ],
      [
        "æīĢå±ŀ",
        "åŃ¦ç§ĳ"
      ],
      [
        "æ",
        "¬"
      ],
      [
        "é",
        "¦"
      ],
      [
        "ä½",
        "¿"
      ],
      [
        "æĸ",
        "¯"
      ],
      [
        "åħ",
        "·"
      ],
      [
        "ç«",
        "ĭ"
      ],
      [
        "ä¸»",
        "è¦ģ"
      ],
      [
        "è",
        "¢"
      ],
      [
        "æĶ",
        "¿"
      ],
      [
        "ç",
        "ľ"
      ],
      [
        "é",
        "¡"
      ],
      [
        "ä¼",
        "ł"
      ],
      [
        "ä¹",
        "Ł"
      ],
      [
        "åħ",
        "¥"
      ],
      [
        "æĬ",
        "Ģ"
      ],
      [
        "è®",
        "º"
      ],
      [
        "å¸",
        "¸"
      ],
      [
        "ä¹",
        "¦"
      ],
      [
        "ï",
        "½"
      ],
      [
        "ï½",
        "ŀ"
      ],
      [
        "ç¤",
        "¾"
      ],
      [
        "Ċ",
        "Ċ"
      ],
      [
        "äº",
        "ĭ"
      ],
      [
        "ä¿",
        "Ŀ"
      ],
      [
        "è",
        "¶"
      ],
      [
        "æ",
        "ģ"
      ],
      [
        "ç",
        "²"
      ],
      [
        "æµ",
        "·"
      ],
      [
        "é",
        "ĵ"
      ],
      [
        "å¾",
        "Ĺ"
      ],
      [
        "åħ",
        "ī"
      ],
      [
        "ä¿",
        "¡"
      ],
      [
        "æ",
        "®"
      ],
      [
        "ä»",
        "İ"
      ],
      [
        "ç¬",
        "¬"
      ],
      [
        "ç³»",
        "ç»Ł"
      ],
      [
        "æį",
        "®"
      ],
      [
        "è¢",
        "«"
      ],
      [
        "ç",
        "¦"
      ],
      [
        "åį",
        "Ĺ"
      ],
      [
        "è¯",
        "Ń"
      ],
      [
        "åĽ",
        "¾"
      ],
      [
        "éģ",
        "ĵ"
      ],
      [
        "è§",
        "Ħ"
      ],
      [
        "ä¹",
        "ī"
      ],
      [
        "ï¼",
        "ļ"
      ],
      [
        "è¿",
        "Ĳ"
      ],
      [
        "é",
        "ª"
      ],
      [
        "ç¾",
        "İ"
      ],
      [
        "ä»",
        "¶"
      ],
      [
        "æŃ",
        "¤"
      ],
      [
        "é",
        "Ĵ"
      ],
      [
        "å°",
        "Ķ"
      ],
      [
        "æł",
        "ĩ"
      ],
      [
        "ç",
        "ģ"
      ],
      [
        "ç",
        "Ħ"
      ],
      [
        "æĺ",
        "İ"
      ],
      [
        "å¿",
        "ĥ"
      ],
      [
        "æĸ",
        "Ļ"
      ],
      [
        "å",
        "²"
      ],
      [
        "åĲ",
        "Ħ"
      ],
      [
        "é",
        "ľ"
      ],
      [
        "çĽ",
        "®"
      ],
      [
        "åĲ",
        "ĳ"
      ],
      [
        "åĮ",
        "ħ"
      ],
      [
        "å¯",
        "¼"
      ],
      [
        "æ",
        "¡"
      ],
      [
        "è¿Ľ",
        "è¡Į"
      ],
      [
        "åĮ",
        "Ĺ"
      ],
      [
        "ä¸",
        "ī"
      ],
      [
        "æ´",
        "»"
      ],
      [
        "i",
        "n"
      ],
      [
        "æ",
        "¨"
      ],
      [
        "å¸",
        "ĥ"
      ],
      [
        "çº",
        "¿"
      ],
      [
        "çİ",
        "¯"
      ],
      [
        "å¸",
        "Ĥ"
      ],
      [
        "ä¸",
        "¤"
      ],
      [
        "æº",
        "Ĳ"
      ],
      [
        "æ",
        "¼"
      ],
      [
        "æĢ",
        "ģ"
      ],
      [
        "è",
        "£"
      ],
      [
        "è",
        "İ"
      ],
      [
        "æĬĢ",
        "æľ¯"
      ],
      [
        "æ",
        "·"
      ],
      [
        "o",
        "n"
      ],
      [
        "ç",
        "Ĭ"
      ],
      [
        "ä»",
        "»"
      ],
      [
        "åı",
        "į"
      ],
      [
        "éĩ",
        "ĳ"
      ],
      [
        "ç",
        "¥"
      ],
      [
        "ç",
        "Ĺ"
      ],
      [
        "å±",
        "±"
      ],
      [
        "èµ",
        "Ħ"
      ],
      [
        "å",
        "ģ"
      ],
      [
        "å°",
        "Ĩ"
      ],
      [
        "åĳ",
        "ĺ"
      ],
      [
        "è",
        "Ĳ"
      ],
      [
        "é",
        "©"
      ],
      [
        "èµ",
        "·"
      ],
      [
        "éĽ",
        "Ĩ"
      ],
      [
        "åī",
        "į"
      ],
      [
        "è¾",
        "ĥ"
      ],
      [
        "åıĳ",
        "å±ķ"
      ],
      [
        "å½",
        "ĵ"
      ],
      [
        "æ¯",
        "Ķ"
      ],
      [
        "äº",
        "Į"
      ],
      [
        "åį",
        "ķ"
      ],
      [
        "æľ",
        "Ī"
      ],
      [
        "åı",
        "Ī"
      ],
      [
        "é",
        "»"
      ],
      [
        "å¤",
        "©"
      ],
      [
        "æİ",
        "¥"
      ],
      [
        "a",
        "n"
      ],
      [
        "åī",
        "§"
      ],
      [
        "åħ",
        "±"
      ],
      [
        "è§",
        "£"
      ],
      [
        "ç",
        "Ļ"
      ],
      [
        "ç¤¾",
        "ä¼ļ"
      ],
      [
        "è",
        "Ħ"
      ],
      [
        "æĮ",
        "ĩ"
      ],
      [
        "èī",
        "²"
      ],
      [
        "æ¨",
        "¡"
      ],
      [
        "åĬ",
        "¡"
      ],
      [
        "é",
        "Ł"
      ],
      [
        "å¤",
        "Ħ"
      ],
      [
        "a",
        "t"
      ],
      [
        "åľ",
        "Ł"
      ],
      [
        "ç©",
        "º"
      ],
      [
        "åı",
        "²"
      ],
      [
        "1",
        "8"
      ],
      [
        "ä¸",
        "ľ"
      ],
      [
        "å±",
        "Ĥ"
      ],
      [
        "é",
        "Ķ"
      ],
      [
        "éĻ",
        "¢"
      ],
      [
        "å®",
        "ī"
      ],
      [
        "åľ",
        "º"
      ],
      [
        "çĦ",
        "¶"
      ],
      [
        "æķ",
        "Ī"
      ],
      [
        "çķ",
        "Į"
      ],
      [
        "çŁ",
        "³"
      ],
      [
        "å¢",
        "ĥ"
      ],
      [
        "è°",
        "ĥ"
      ],
      [
        "æ²",
        "»"
      ],
      [
        "çİ",
        "ĩ"
      ],
      [
        "ç",
        "Ŀ"
      ],
      [
        "èī",
        "º"
      ],
      [
        "å¾",
        "·"
      ],
      [
        "æ",
        "£"
      ],
      [
        "æ¬",
        "¡"
      ],
      [
        "æĭ",
        "ī"
      ],
      [
        "éĢļ",
        "è¿ĩ"
      ],
      [
        "è§",
        "Ĥ"
      ],
      [
        "e",
        "r"
      ],
      [
        "è",
        "Į"
      ],
      [
        "æĹ",
        "ł"
      ],
      [
        "åħ",
        "ĥ"
      ],
      [
        "æĦ",
        "ı"
      ],
      [
        "æĭ",
        "¬"
      ],
      [
        "è",
        "±"
      ],
      [
        "æŃ",
        "£"
      ],
      [
        "æł",
        "¼"
      ],
      [
        "äº",
        "¤"
      ],
      [
        "ä¸Ģ",
        "ä¸ª"
      ],
      [
        "è¾",
        "¾"
      ],
      [
        "çĥ",
        "Ń"
      ],
      [
        "åħ",
        "ĭ"
      ],
      [
        "åŃ",
        "ĺ"
      ],
      [
        "è",
        "ĳ"
      ],
      [
        "0",
        "0"
      ],
      [
        "åĪ",
        "Ľ"
      ],
      [
        "åŁ",
        "İ"
      ],
      [
        "åı¯",
        "ä»¥"
      ],
      [
        "æĥ",
        "ħ"
      ],
      [
        "å°",
        "Ħ"
      ],
      [
        "ãĢĭ",
        "ãĢĬ"
      ],
      [
        "äº",
        "ļ"
      ],
      [
        "éĩ",
        "ĩ"
      ],
      [
        "åĮħ",
        "æĭ¬"
      ],
      [
        "ç",
        "ĸ"
      ],
      [
        "éĢ",
        "ł"
      ],
      [
        "çĬ",
        "¶"
      ],
      [
        "å¼",
        "º"
      ],
      [
        "åı",
        "¤"
      ],
      [
        "æ¼",
        "Ķ"
      ],
      [
        "ç´",
        "ł"
      ],
      [
        "èĤ",
        "²"
      ],
      [
        "åı",
        "Ĺ"
      ],
      [
        "æ",
        "»"
      ],
      [
        "éĥ",
        "½"
      ],
      [
        "åĪ",
        "Ļ"
      ],
      [
        "é¢",
        "ĺ"
      ],
      [
        "çº",
        "ª"
      ],
      [
        "ç§ĳ",
        "åŃ¦"
      ],
      [
        "åĽ½",
        "å®¶"
      ],
      [
        "åħ·",
        "æľī"
      ],
      [
        "å·¥",
        "ç¨ĭ"
      ],
      [
        "ä¸į",
        "åĲĮ"
      ],
      [
        "ç»",
        "´"
      ],
      [
        "æĿ",
        "¡"
      ],
      [
        "å¹",
        "¿"
      ],
      [
        "é£",
        "İ"
      ],
      [
        "èģ",
        "Ķ"
      ],
      [
        "ç»",
        "ĩ"
      ],
      [
        "è½",
        "¬"
      ],
      [
        "æĹ",
        "ı"
      ],
      [
        "å",
        "¡"
      ],
      [
        "è¯",
        "´"
      ],
      [
        "æĸ¹",
        "æ³ķ"
      ],
      [
        "åŁ",
        "Ł"
      ],
      [
        "è¿ĩ",
        "ç¨ĭ"
      ],
      [
        "ç§",
        "¯"
      ],
      [
        "ç»ĵ",
        "æŀĦ"
      ],
      [
        "éª",
        "Į"
      ],
      [
        "çĽ",
        "´"
      ],
      [
        "è¿",
        "ĺ"
      ],
      [
        "åı",
        "£"
      ],
      [
        "åĪ",
        "«"
      ],
      [
        "æģ",
        "¯"
      ],
      [
        "ç¦",
        "»"
      ],
      [
        "å¤",
        "į"
      ],
      [
        "çī",
        "Ī"
      ],
      [
        "çº",
        "¦"
      ],
      [
        "æĿ",
        "Ĳ"
      ],
      [
        "çº",
        "§"
      ],
      [
        "a",
        "l"
      ],
      [
        "ï¼ī",
        "ãĢģ"
      ],
      [
        "æĶ",
        "¶"
      ],
      [
        "èĩ",
        "³"
      ],
      [
        "åİ",
        "ĭ"
      ],
      [
        "æ",
        "¢"
      ],
      [
        "ä½",
        "Ĩ"
      ],
      [
        "è",
        "Ļ"
      ],
      [
        "çĹ",
        "ħ"
      ],
      [
        "æİ",
        "§"
      ],
      [
        "æĢ",
        "»"
      ],
      [
        "æ±",
        "Ĥ"
      ],
      [
        "éĿ",
        "ŀ"
      ],
      [
        "æ²",
        "³"
      ],
      [
        "æł",
        "¹"
      ],
      [
        "æĹ¶",
        "éĹ´"
      ],
      [
        "åĵ",
        "į"
      ],
      [
        "è¯",
        "Ĺ"
      ],
      [
        "è±",
        "¡"
      ],
      [
        "æ¸",
        "©"
      ],
      [
        "æŀ",
        "ľ"
      ],
      [
        "åİ",
        "Ĩ"
      ],
      [
        "åı",
        "ĸ"
      ],
      [
        "æĶ",
        "¹"
      ],
      [
        "ç½",
        "®"
      ],
      [
        "åĩ",
        "Ĩ"
      ],
      [
        "åŃ",
        "Ĺ"
      ],
      [
        "è·",
        "¯"
      ],
      [
        "åĢ",
        "¼"
      ],
      [
        "èĬ",
        "Ĥ"
      ],
      [
        "éľ",
        "Ģ"
      ],
      [
        "æ",
        "¹"
      ],
      [
        "çİ¯",
        "å¢ĥ"
      ],
      [
        "å¸",
        "¦"
      ],
      [
        "é©",
        "¬"
      ],
      [
        "éĻ",
        "ħ"
      ],
      [
        "e",
        "n"
      ],
      [
        "éĢ",
        "ī"
      ],
      [
        "ç¼",
        "ĸ"
      ],
      [
        "å·¥",
        "ä½ľ"
      ],
      [
        "äº",
        "Ľ"
      ],
      [
        "ç®¡",
        "çĲĨ"
      ],
      [
        "èİ",
        "·"
      ],
      [
        "æµ",
        "İ"
      ],
      [
        "ä½",
        "İ"
      ],
      [
        "æŀ",
        "Ĺ"
      ],
      [
        "ä»¥",
        "åıĬ"
      ],
      [
        "ç»",
        "Ĩ"
      ],
      [
        "éĢ",
        "Ł"
      ],
      [
        "åĬ",
        "Ł"
      ],
      [
        "æĬ",
        "¤"
      ],
      [
        "åį",
        "³"
      ],
      [
        "ä½ľ",
        "çĶ¨"
      ],
      [
        "éĹ",
        "¨"
      ],
      [
        "éŁ",
        "³"
      ],
      [
        "1",
        "0"
      ],
      [
        "è",
        "ħ"
      ],
      [
        "æ³",
        "¢"
      ],
      [
        "ä¸Ń",
        "çļĦ"
      ],
      [
        "è",
        "¨"
      ],
      [
        "è¨",
        "Ģ"
      ],
      [
        "ãĢĭ",
        "ï¼Ī"
      ],
      [
        "å",
        "Ķ"
      ],
      [
        "åį",
        "ģ"
      ],
      [
        "è®",
        "¤"
      ],
      [
        "çĿ",
        "Ģ"
      ],
      [
        "æĦ",
        "Ł"
      ],
      [
        "æ",
        "¤"
      ],
      [
        "è£",
        "ħ"
      ],
      [
        "ä¿¡",
        "æģ¯"
      ],
      [
        "å",
        "ĸ"
      ],
      [
        "éĩį",
        "è¦ģ"
      ],
      [
        "çī",
        "ĩ"
      ],
      [
        "åı",
        "Ĥ"
      ],
      [
        "æĿ",
        "ĥ"
      ],
      [
        "ç",
        "¢"
      ],
      [
        "æĸ",
        "½"
      ],
      [
        "å°",
        "±"
      ],
      [
        "ï¼ī",
        "ï¼Į"
      ],
      [
        "a",
        "r"
      ],
      [
        "æ³",
        "¨"
      ],
      [
        "æ®",
        "µ"
      ],
      [
        "åı",
        "·"
      ],
      [
        "åĿ",
        "ĩ"
      ],
      [
        "èĳ",
        "Ĺ"
      ],
      [
        "éĩ",
        "Į"
      ],
      [
        "æĶ",
        "¾"
      ],
      [
        "å¼",
        "ķ"
      ],
      [
        "ç¡",
        "®"
      ],
      [
        "åĨ",
[...]
